{"vocab":{"spikes":19547,"engraver":27771,"young":2402,"cycling":9670,"##ilia":27861,"modifications":12719,"academia":16926,"sediment":19671,"antilles":27695,"swansea":16085,"##iche":17322,"passing":4458,"ga":11721,"meadows":13524,"[unused583]":588,"genetics":14471,"eds":11985,"##—":30052,"suitable":7218,"needed":2734,"islanders":16422,"##rade":13662,"johan":13093,"clumsy":22902,"guest":4113,"[unused413]":418,"##sei":20240,"throws":11618,"pauses":19623,"pre":3653,"##ric":7277,"rotting":22005,"##а":10260,"##cting":11873,"##ক":29889,"phillies":15711,"jaguar":16490,"##hei":26036,"accusations":13519,"uh":7910,"##kic":29493,"squirrels":29384,"slavery":8864,"##tland":19270,"sergio":13983,"christine":10941,"paperwork":17397,"jase":18626,"atop":10234,"rid":9436,"##abe":16336,"gettysburg":22577,"unto":19662,"secretive":28607,"blush":16688,"manly":19385,"mick":10872,"economically":15318,"compatibility":21778,"s":1055,"[unused169]":174,"gills":29468,"##eed":13089,"amy":6864,"starter":11753,"gravel":11127,"selective":13228,"therapy":7242,"1850":7973,"##ɬ":29687,"edition":3179,"genres":11541,"soul":3969,"swords":10689,"kyiv":25669,"breaking":4911,"bankruptcy":10528,"armament":14410,"streaked":21276,"##彳":30371,"begins":4269,"next":2279,"four":2176,"impending":17945,"relates":14623,"pitching":14696,"275":17528,"robbins":18091,"##mussen":29134,"licensed":7000,"ethiopian":15101,"toni":16525,"##.":29625,"procedural":24508,"reeves":17891,"stigma":26453,"є":1212,"bulky":27446,"ᅧ":1474,"##陳":30498,"gladstone":21765,"arteries":28915,"##0s":16223,"scientist":7155,"334":29562,"outskirts":12730,"##space":23058,"inflicted":17303,"mediterranean":7095,"##ɫ":29686,"highlight":12944,"vault":11632,"repairs":10315,"wealth":7177,"quantitative":20155,"mueller":26774,"racial":5762,"hesse":16399,"metaphysical":29081,"gases":15865,"##vish":24968,"must":2442,"firmly":7933,"##df":20952,"plantation":10065,"kitchen":3829,"##gn":16206,"trainers":21992,"#":1001,"##cini":27085,"porcelain":17767,"brittle":24650,"platform":4132,"directing":9855,"informant":28694,"insert":19274,"語":1950,"registering":25719,"solutions":7300,"oblivious":18333,"periodically":18043,"accompanying":10860,"graphs":19287,"compiling":21953,"de":2139,"##unt":16671,"gather":8587,"boo":22017,"comic":5021,"[unused372]":377,"[unused375]":380,"uploaded":21345,"depicting":10775,"morning":2851,"perpetrators":27675,"swirl":28693,"##idi":28173,"##stellar":29028,"##reate":29313,"multicultural":27135,"##bri":23736,"nawab":26543,"##ts":3215,"wealthiest":27809,"bohemia":16799,"nadu":10703,"accelerating":29494,"sealing":23038,"consolidation":17439,"info":18558,"bangs":28490,"##nee":24045,"13th":6122,"dane":14569,"oakley":28876,"##evsky":27015,"slipping":11426,"##zation":9276,"##cton":28312,"##cb":27421,"##∂":30120,"jennie":27557,"canadian":3010,"ignorance":18173,"##ess":7971,"honeymoon":19227,"##gist":24063,"cottages":18918,"##ime":14428,"hammered":25756,"menace":19854,"1813":12169,"sampled":18925,"crumpled":19814,"legendary":8987,"##zel":12638,"neared":20832,"musicals":20103,"predator":15267,"detail":6987,"remains":3464,"unless":4983,"cds":14340,"forget":5293,"##pe":5051,"reviewed":8182,"##chuk":26516,"##peed":25599,"rang":8369,"clapping":27104,"disposition":22137,"川":1835,"creature":6492,"[unused699]":704,"sprawled":21212,"1762":20827,"hon":10189,"den":7939,"persistence":28297,"stefano":19618,"says":2758,"blessed":10190,"morrison":9959,"nur":27617,"rightful":27167,"doubtful":21888,"opaque":28670,"meteor":23879,"quick":4248,"extend":7949,"dominant":7444,"attach":22476,"rhythmic":14797,"virus":7865,"kellan":19697,"uncomfortable":8796,"##亻":30283,"##er":2121,"altered":8776,"ryan":4575,"##elling":23918,"##sm":6491,"##ctic":13306,"##ful":3993,"##pi":8197,"armagh":24678,"truce":18415,"refused":4188,"##suke":16867,"emails":22028,"yes":2748,"hunted":14682,"empathy":26452,"##ility":15148,"##poulos":24662,"thirsty":24907,"##tarian":28897,"dorsal":12759,"propose":16599,"excavation":16456,"arose":10375,"tonic":28157,"soccer":4715,"can":2064,"wholly":12590,"kilda":22633,"glee":18874,"tango":17609,"gary":5639,"bearer":20905,"sociologist":25106,"##tham":22536,"bartender":15812,"liquids":26820,"believer":24591,"##urable":23086,"racer":14878,"trench":14185,"##ont":12162,"scrolling":28903,"##walker":26965,"[unused70]":71,"headlined":25214,"hulk":16009,"##nan":7229,"cecilia":18459,"truck":4744,"mw":12464,"emigration":20387,"voter":14303,"shaped":5044,"sql":29296,"precipitation":13511,"ß":1096,"calling":4214,"##ud":6784,"##ska":8337,"currently":2747,"cosmos":21182,"880":26839,"chasing":11777,"aft":16638,"elk":18995,"leafs":21349,"guided":8546,"colloquially":23992,"203":18540,"carbonate":26427,"punching":19477,"[unused705]":710,"humphrey":15462,"##je":6460,"##rative":18514,"##ovsky":21983,"radiated":23000,"bears":6468,"gan":25957,"劉":1777,"kuala":15490,"textual":25304,"productive":13318,"existent":25953,"##ᄐ":30003,"cadence":23620,"detailing":17555,"occasionally":5681,"irving":12415,"镇":1966,"##ய":29926,"traversed":27797,"1788":15622,"company":2194,"resentment":20234,"possibly":4298,"subsp":24807,"romani":23982,"kazakhstan":11769,"gambia":26728,"racks":27259,"##ffie":29055,"lansing":22304,"[unused245]":250,"depart":18280,"nadia":14942,"oricon":22237,"detective":6317,"##sche":22842,"fitzpatrick":26249,"##screen":18182,"donkey":20325,"toward":2646,"cleared":5985,"##oney":17791,"##sg":28745,"malawi":18137,"##lam":10278,"silvia":27827,"ringing":13060,"##⟨":30155,"##nch":12680,"morocco":9835,"americas":10925,"##lessly":10895,"##cey":25810,"formations":13197,"harley":13653,"buena":27493,"carpet":10135,"alleging":23294,"mr":2720,"dutton":28784,"continuity":13717,"remote":6556,"1860s":15914,"##poo":24667,"ე":1442,"madras":12993,"##chua":26200,"stationed":8895,"fairfield":18986,"destroyed":3908,"smacked":19203,"wallace":7825,"holding":3173,"orchestra":4032,"councillors":13189,"pretty":3492,"tobago":17247,"terrace":11134,"captive":12481,"##iful":18424,"habitat":6552,"temptation":17232,"方":1863,"##定":30348,"exceeding":17003,"hometown":9627,"ed":3968,"##oko":16366,"recession":19396,"massive":5294,"draws":9891,"wherein":16726,"enjoy":5959,"surrounds":20626,"gesellschaft":27482,"premise":18458,"centers":6401,"descriptive":22726,"majestic":22337,"mandatory":10915,"lunged":17755,"gentleman":10170,"pursuits":23719,"chesapeake":20867,"mentioned":3855,"realises":25924,"seventh":5066,"pleasures":26552,"##ɯ":29688,"brakes":13627,"gap":6578,"independence":4336,"##weed":18041,"1970":3359,"overture":25052,"song":2299,"christmas":4234,"cinematography":16434,"bryan":8527,"qualifications":15644,"##land":3122,"bells":10118,"beaumont":16210,"tremble":20627,"hello":7592,"blockbuster":27858,"[unused772]":777,"##風":30503,"forms":3596,"harry":4302,"##lette":27901,"absorbed":9063,"eruptions":28448,"rodney":13898,"oxfordshire":20124,"garth":21523,"##lberg":22927,"thing":2518,"okay":3100,"##巿":30363,"[unused490]":495,"##logic":27179,"##ħ":29672,"questioned":8781,"122":13092,"##pheus":22809,"launching":12106,"seizures":25750,"nods":11232,"tu":10722,"36th":21460,"electricity":6451,"bends":23394,"##belle":25766,"infection":8985,"delivered":5359,"##position":26994,"scrambled":13501,"adultery":29169,"ل":1294,"unexpected":9223,"dynasties":23014,"novi":21574,"took":2165,"progression":14967,"##ouin":25058,"she":2016,"sentimental":23069,"guzman":22789,"##o":2080,"novo":24576,"##sberg":11711,"##num":19172,"##rized":18425,"ben":3841,"##ส":29956,"definition":6210,"estuary":18056,"royalty":16664,"snails":13482,"さ":1656,"fallen":5357,"editorial":8368,"obsolete":15832,"braves":13980,"relocation":18344,"1655":28438,"##bler":16213,"nigel":12829,"emil":16243,"[unused745]":750,"fulfillment":29362,"pedro":7707,"##pg":26952,"individuals":3633,"##≡":30134,"197":19975,"neighborhood":5101,"adolescents":25947,"ミ":1724,"[unused37]":38,"narayan":24331,"wear":4929,"loops":15932,"statutory":15201,"[unused728]":733,"nerve":9113,"thoroughly":12246,"mythical":19336,"[unused881]":886,"kensington":17775,"##bour":25127,"accumulated":14830,"[unused815]":820,"##a":2050,"##mento":23065,"hapoel":24208,"team":2136,"##白":30441,"shen":21882,"portfolio":11103,"保":1766,"residence":5039,"##urian":29091,"##46":21472,"watching":3666,"giggles":26466,"[unused265]":270,"comedians":25119,"[unused968]":973,"##ロ":30261,"ronald":8923,"##link":13767,"parker":6262,"uses":3594,"##a1":27717,"genevieve":20245,"##kes":9681,"cockpit":13828,"speeding":21485,"harvested":22629,"##rts":21217,"keeps":7906,"miller":4679,"##lies":11983,"ninth":6619,"typical":5171,"texted":24637,"muster":20327,"davey":20436,"evenly":18030,"dense":9742,"sphere":10336,"ratings":8599,"##ذ":29822,"breaks":7807,"outlook":17680,"katie":9734,"questioning":11242,"torch":12723,"carey":11782,"harness":17445,"heels":8265,"selected":3479,"manchester":5087,"ط":1286,"[unused455]":460,"container":11661,"##buro":23670,"##orra":24285,"canonical":18562,"[unused352]":357,"contractor":13666,"weighed":12781,"et":3802,"##」":30168,"##長":30493,"distress":12893,"##nos":15460,"qualities":11647,"##nob":25083,"prop":17678,"rampant":25883,"[unused524]":529,"archbishop":6507,"orderly":23589,"promise":4872,"imitation":20017,"education":2495,"burst":6532,"clans":16411,"lid":11876,"##log":21197,"##cm":27487,"hospital":2902,"facility":4322,"mansfield":15352,"twin":5519,"educator":11490,"##is":2483,"rainfall":10101,"gm":13938,"gottingen":23607,"[unused788]":793,"harm":7386,"pharaoh":22089,"[unused494]":499,"steer":20634,"issues":3314,"roberta":23455,"##irus":26013,"proctor":28770,"presently":12825,"serious":3809,"knots":9439,"##icum":22167,"enjoying":9107,"##dran":24914,"hodgson":26107,"elevated":8319,"asking":4851,"undergoes":29129,"coastline":15458,"##eit":20175,"migrating":28636,"[unused622]":627,"zimmerman":27946,"panama":8515,"gall":26033,"strengthen":12919,"##dalen":26414,"comes":3310,"pickering":27078,"武":1889,"narrow":4867,"celebrating":12964,"pause":8724,"##aman":23093,"1689":22685,"medications":20992,"1861":6863,"trustees":9360,"parades":26635,"beverly":12218,"rayon":26810,"psalm":22728,"connell":17199,"##ivity":7730,"timetable":23839,"purity":18433,"##otte":28495,"defective":28829,"##gg":13871,"08":5511,"receptions":16466,"bubble":11957,"blackwell":18776,"li":5622,"##hiti":27798,"profoundly":28089,"[unused136]":141,"404":24837,"frequently":4703,"ioc":25941,"dartmouth":16960,"unified":10562,"clifton":16271,"bloomfield":25584,"地":1802,"[unused339]":344,"somehow":5064,"jose":4560,"##／":30518,"გ":1440,"レ":1734,"rock":2600,"##na":2532,"*":1008,"heat":3684,"##ulating":10924,"##rank":26763,"colombo":16224,"##scu":28817,"cale":21854,"mavericks":28330,"furry":28662,"orioles":18893,"1989":2960,"symmetrical":23476,"‡":1527,"witty":25591,"##lke":28143,"graeme":21840,"innsbruck":28914,"cable":5830,"reservoir":8071,"[unused822]":827,"miranda":9392,"obligation":14987,"##red":5596,"1948":3882,"shone":14707,"completed":2949,"varying":9671,"tamara":21772,"##ved":7178,"[unused343]":348,"##anor":27869,"deleted":17159,"##tia":10711,"salvador":10582,"exclaimed":12713,"lobe":21833,"replacing":6419,"supermarket":17006,"mahmoud":27278,"freyja":7075,"##typical":27086,"1806":12518,"##lena":20844,"zaragoza":25744,"gothic":7788,"filed":6406,"[unused133]":138,"smoked":20482,"gina":17508,"col":8902,"aromatic":25496,"[unused168]":173,"snow":4586,"exhaled":16242,"##ridge":9438,"trapped":7567,"##owed":15096,"##lka":26518,"1757":22621,"focal":15918,"salsa":26509,"##redo":23417,"printing":8021,"cecil":11978,"elf":17163,"melodic":17187,"cities":3655,"##nsed":27730,"albion":13392,"recreation":8640,"64":4185,"spots":7516,"##erty":15010,"##merie":28677,"clamped":18597,"western":2530,"clermont":27956,"flawless":27503,"[unused901]":906,"evergreen":16899,"stamford":22469,"foul":12487,"qing":13282,"snowfall":26043,"[unused232]":237,"nero":19212,"rebelled":25183,"upcoming":9046,"play":2377,"##act":18908,"pratt":13208,"radiating":23229,"sun":3103,"battlefield":11686,"jacqueline":17551,"contribution":6691,"##atz":20501,"store":3573,"##hein":26496,"poor":3532,"##ィ":30220,"##bine":16765,"clause":11075,"vast":6565,"dot":11089,"commercials":12698,"probably":2763,"[unused528]":533,"##las":8523,"terrifying":17082,"emmanuel":14459,"swiped":24452,"1750":18171,"324":27234,"##zbek":28733,"[unused611]":616,"join":3693,"sensors":13907,"pounder":20091,"gods":5932,"fronted":23291,"tumors":21434,"conservative":4603,"lucius":15639,"##rrow":28597,"wondered":4999,"battalions":10157,"psyche":25774,"##天":30337,"worried":5191,"confluence":13693,"cumulative":23260,"precedent":20056,"japan":2900,"##kin":4939,"logistical":28961,"landings":16805,"ritual":8887,"##º":29662,"1822":12307,"cesare":26708,"estimated":4358,"fi":10882,"yusuf":23495,"pennant":22690,"handcuffs":28338,"obsidian":29042,"aristocratic":19774,"tears":4000,"terribly":16668,"laval":26205,"valencia":13083,"cbn":21824,"gallo":25624,"stump":22475,"41":4601,"acknowledging":21894,"about":2055,"##√":30127,"doesn":2987,"##gol":24141,"touches":12817,"##jet":15759,"##eza":28640,"ares":23631,"bracket":21605,"ref":25416,"dams":17278,"##iy":28008,"measurement":10903,"##orus":21694,"marriages":12743,"filter":11307,"##rak":16555,"disposed":21866,"needing":11303,"un":4895,"doha":26528,"sublime":28341,"outnumbered":21943,"privateer":26790,"adopting":16151,"##ced":11788,"materialized":27075,"##ф":29749,"saturday":5095,"extravagant":27856,"##wd":21724,"[unused896]":901,"hinted":21795,"had":2018,"poles":10567,"[unused727]":732,"purchasing":13131,"abandoned":4704,"monastery":6408,"waters":5380,"ث":1274,"[unused30]":31,"hunan":27374,"darius":14861,"external":6327,"canals":17263,"closely":4876,"julie":7628,"pp":4903,"graduates":10845,"##set":13462,"##tha":8322,"commence":22825,"##let":7485,"expression":3670,"believe":2903,"recalled":7383,"coal":5317,"##words":22104,"daemon":12828,"viii":9937,"trunk":8260,"##ral":7941,"susceptible":18002,"##ddy":14968,"org":8917,"##gat":20697,"serve":3710,"arthur":4300,"##ා":29944,"tub":14366,"regimental":17604,"tx":19067,"cha":15775,"tr":19817,"475":28245,"painters":12499,"540":20263,"paradigm":20680,"doug":8788,"hans":7003,"inspector":7742,"limiting":14879,"vamp":20279,"corrupted":27279,"[unused820]":825,"[unused222]":227,"ε":1159,"futsal":21921,"equivalent":5662,"##‿":30069,"beth":7014,"turmoil":17930,"brace":17180,"modules":14184,"marketing":5821,"renovation":10525,"durham":9296,"silesian":20453,"competed":3879,"##skie":23955,"lillian":19344,"basketball":3455,"##yes":23147,"protege":28567,"nee":7663,"pot":8962,"wilder":18463,"khorasan":23225,"##illon":20343,"nash":10594,"numbered":8597,"##rh":25032,"##cake":17955,"resistance":5012,"##finger":20349,"restructuring":18322,"notably":5546,"liquor":13207,"chairman":3472,"berries":22681,"sanitary":25480,"pakistani":9889,"blazed":25590,"embroidery":29507,"[unused419]":424,"##た":30187,"aged":4793,"rangers":7181,"associates":9228,"hazards":22010,"receiving":4909,"1683":27414,"flies":10029,"tongues":19677,"reliefs":27670,"wwii":25755,"sahib":23513,"dressing":11225,"175":12862,"ashamed":14984,"saddam":24111,"undertaker":27568,"doubt":4797,"pressure":3778,"pointedly":28713,"##章":30458,"##zak":20685,"thrilling":26162,"dashed":18198,"famous":3297,"organizing":10863,"paradise":9097,"##avio":28471,"unaffected":24720,"spark":12125,"complain":17612,"##dgets":28682,"240":11212,"dos":9998,"identities":15702,"[unused91]":92,"patriot":16419,"[unused819]":824,"##lp":14277,"##maker":8571,"shut":3844,"girlfriend":6513,"imprint":15738,"philipp":20765,"erik":10240,"stakeholders":22859,"19th":3708,"representation":6630,"revisited":24354,"clair":17936,"margin":7785,"breakers":24742,"##clops":28659,"##48":18139,"hovering":16349,"tunes":13281,"objections":17304,"hammering":27883,"mangrove":29340,"acting":3772,"cr":13675,"trinity":7124,"##parts":26950,"armando":26716,"##mus":7606,"mergers":28585,"notwithstanding":26206,"michel":8709,"ducks":14875,"immaculate":19532,"blazing":17162,"graz":26918,"oral":8700,"employee":7904,"reputation":5891,"potent":16834,"##haya":26115,"highlighting":20655,"citizens":4480,"uno":27776,"graveyard":16685,"kendrick":25341,"concentrated":8279,"gs":28177,"department":2533,"##$":29615,"holly":9079,"inflated":29561,"##thic":23048,"online":3784,"poked":16826,"##aceous":25560,"fewer":8491,"kicked":6476,"stalled":20659,"##sler":20590,"hollywood":5365,"ms":5796,"converts":19884,"nobility":11760,"establishing":7411,"rosemary":18040,"quantum":8559,"##bley":29538,"detainees":26485,"hove":25215,"psi":17816,"before":2077,"##dom":9527,"loans":10940,"##dly":18718,"lovely":8403,"wilkins":22745,"##rnier":28484,"tip":5955,"arranger":13981,"##hid":27511,"calculate":18422,"tide":10401,"##yuki":19663,"parody":12354,"jagger":25827,"##raj":14220,"##glass":15621,"dal":17488,"ict":25891,"characterization":23191,"dioxide":14384,"organisation":5502,"coherent":18920,"jonny":26937,"224":19711,"medals":6665,"moderately":17844,"##pressed":19811,"tenants":14665,"asylum":11386,"winthrop":28974,"伊":1762,"##sley":8002,"introductions":25795,"admission":9634,"detected":11156,"assist":6509,"##kko":22426,"services":2578,"dumb":12873,"स":1338,"domination":17882,"##ct":6593,"lily":7094,"sc":8040,"truss":24224,"thanking":28638,"suarez":22551,"corner":3420,"[unused81]":82,"memphis":9774,"1746":24507,"gmbh":18289,"soared":29127,"spence":22186,"parliament":3323,"administrations":27722,"idiots":28781,"b1":29491,"signaled":22319,"denying":16039,"apartheid":17862,"licensing":13202,"##ut":4904,"aurora":13158,"acts":4490,"labeling":28847,"amalgamation":21968,"urine":17996,"israel":3956,"swung":7671,"##х":29750,"anomaly":28685,"titanium":23431,"convict":20462,"liz":9056,"##ppe":21512,"downs":12482,"shaky":15311,"celebrity":8958,"cites":17248,"element":5783,"crest":11146,"barcelona":7623,"libby":19533,"stirling":15597,"involuntary":26097,"teammate":10809,"westward":15165,"resurrection":15218,"450":10332,"restored":5854,"giovanni":9136,"hooks":18008,"psalms":26130,"[unused274]":279,"##₤":30100,"shivered":13927,"lombardy":27728,"[unused945]":950,"##usly":27191,"granite":9753,"rus":22949,"write":4339,"##bil":14454,"shaved":20665,"start":2707,"topographic":24254,"stung":19280,"stealth":22150,"azores":28320,"2010":2230,"riding":5559,"##vers":14028,"shi":11895,"##nsis":11745,"##bate":20179,"bautista":27845,"registers":18687,"##hone":27406,"religions":11822,"greene":11006,"courage":8424,"cornwall":10387,"stale":26729,"##osaurus":25767,"allegations":9989,"id":8909,"orlando":10108,"ロ":1735,"milne":24377,"speculated":15520,"[unused453]":458,"instruction":7899,"craven":21232,"slip":7540,"workplace":16165,"beers":18007,"relinquished":26566,"investigation":4812,"##broken":29162,"##roll":28402,"evening":3944,"exactly":3599,"msc":23794,"sophie":8234,"##tri":18886,"livelihood":24585,"bao":25945,"vineyard":18621,"inherited":7900,"##hala":19531,"##bling":9709,"##bular":28808,"[unused970]":975,"greece":5483,"coached":8868,"endorsement":20380,"presidential":4883,"exceeded":14872,"unique":4310,"softened":16573,"average":2779,"[unused713]":718,"##rates":20370,"linux":11603,"ᅩ":1475,"seeded":13916,"crosses":7821,"[unused258]":263,"league":2223,"sheriff":6458,"oversee":17467,"prehistoric":14491,"lviv":23814,"##arney":25831,"mozart":13177,"yan":13619,"steven":7112,"accumulation":20299,"interior":4592,"overlooked":17092,"##hari":18428,"ea":19413,"her":2014,"periodical":21802,"arena":5196,"overgrown":26433,"superliga":25922,"sheffield":8533,"interim":9455,"features":2838,"affection":12242,"posed":13686,"redwood":27552,"act":2552,"[unused588]":593,"warlord":16579,"fences":21549,"twitched":16767,"sparks":12300,"amnesia":29222,"unbearable":24257,"organised":7362,"castile":15656,"clever":12266,"##ος":15297,"tiberius":28411,"variants":10176,"##mie":9856,"virtue":11870,"ல":1392,"cal":10250,"1990":2901,"favoured":16822,"##oda":13390,"moshe":27123,"##و":29836,"dialed":21300,"macmillan":15434,"chaired":12282,"taxonomic":27691,"moe":22078,"principality":18018,"meg":12669,"т":1197,"ting":28642,"exile":8340,"informing":21672,"##umi":12717,"##taro":28160,"hearth":22885,"shirley":11280,"sudan":10411,"aerial":9682,"##qi":14702,"esteem":19593,"##uz":17040,"subdivided":15369,"spontaneous":17630,"##raine":26456,"microphone":15545,"confederate":8055,"technicians":20202,"refugees":8711,"steals":15539,"##yala":28617,"##raus":25965,"##partisan":26053,"1939":3912,"connecticut":6117,"annually":6604,"barrel":8460,"television":2547,"portion":4664,"ය":1404,"##eland":25689,"jagged":18187,"##ɛ":29275,"concepcion":27331,"amplifier":22686,"overrun":24672,"behaved":26979,"rippled":26862,"consequence":9509,"strode":11885,"artistic":6018,"risked":22374,"flush":13862,"sleeping":5777,"shoot":5607,"##pathic":25940,"sliced":15920,"[unused546]":551,"##vu":19722,"por":18499,"[unused223]":228,"cloth":8416,"cornelius":17354,"fremantle":20358,"customs":8205,"nominations":9930,"gloom":24067,"playback":18245,"madden":24890,"##ych":17994,"alter":11477,"spirited":24462,"milling":22491,"dupont":22848,"##rry":12244,"toned":27604,"ェ":1697,"shrewsbury":18174,"##pura":21228,"illuminated":14640,"rattling":26347,"governance":10615,"frazier":26551,"オ":1699,"sailor":11803,"tatiana":22725,"ه":1297,"##ব":29904,"santos":11053,"##azi":16103,"##lika":25421,"molina":25601,"mermaid":22322,"[unused812]":817,"walt":10598,"##gens":21230,"110":7287,"sonya":27926,"armour":12371,"berry":10498,"##logie":27095,"faculties":18658,"naacp":26155,"##iate":13143,"amazing":6429,"suriname":25050,"##landa":24448,"finest":10418,"schwarz":29058,"borrow":17781,"plotting":20699,"interesting":5875,"nonetheless":9690,"carousel":27628,"##լ":29773,"become":2468,"remembered":4622,"cactus":23265,"##訁":30475,"70th":26934,"strangled":21384,"chemistry":6370,"hawke":24882,"liechtenstein":26500,"casper":24602,"local":2334,"lagoon":15825,"##gall":22263,"glimpse":12185,"blackened":25788,"verdict":14392,"gallantry":22111,"purse":8722,"symphonies":29355,"[unused403]":408,"johnson":3779,"尚":1830,"oil":3514,"##omp":25377,"plotted":27347,"schedules":20283,"discontinued":8944,"albrecht":25542,"cognition":26497,"administratively":23710,"[unused784]":789,"1919":4529,"outfielder":21033,"ada":15262,"##venor":26806,"spacious":22445,"spur":12996,"monmouth":20433,"sandy":7525,"realised":11323,"##沢":30424,"##マ":30249,"calculations":16268,"comedic":21699,"underwood":22751,"honored":8686,"revealing":8669,"б":1181,"katy":17870,"[unused59]":60,"approximate":15796,"##ure":5397,"##llas":25816,"1835":10150,"done":2589,"ui":21318,"remarkable":9487,"##ifies":14144,"##lese":24527,"hampson":21780,"##bla":28522,"comparison":7831,"[unused617]":622,"##iens":24836,"▪":1618,"dodd":21258,"lowland":15234,"spiked":25362,"marcos":14810,"##nity":22758,"lumber":13891,"rebel":8443,"##ム":30251,"kristina":28802,"staring":4582,"yeah":3398,"help":2393,"##є":29759,"stride":18045,"##ajan":28869,"horsemen":25431,"buckinghamshire":21712,"donor":15009,"tilting":21788,"giorgio":17697,"bulbs":25548,"##onne":18256,"hugging":17662,"##rissa":26571,"thrilled":16082,"envisioned":18035,"christy":21550,"##ntly":20630,"maharashtra":12434,"disqualification":27782,"disruption":20461,"א":1241,"##iring":24771,"sous":27411,"##woods":25046,"recovered":6757,"mommy":20565,"##aar":26526,"##gli":25394,"sharma":14654,"##onzo":29452,"##ر":17149,"agatha":23863,"restricting":26996,"disclosure":19380,"augmented":19335,"hectares":9076,"wilcox":23926,"##ter":3334,"[unused349]":354,"thoughtful":16465,"##⁄":30070,"practices":6078,"##jah":18878,"nikita":29106,"##gc":18195,"preserved":6560,"expansive":25145,"kerala":8935,"nak":17823,"##武":30415,"proportional":14267,"cups":10268,"cebu":23312,"marlon":25861,"baker":6243,"quarries":27069,"sermon":18408,"record":2501,"elder":6422,"##jected":24455,"layers":9014,"brilliant":8235,"##cius":25393,"adds":9909,"investigates":28062,"costume":9427,"##iac":20469,"##ulu":20391,"opening":3098,"contributed":5201,"albert":4789,"dreadful":21794,"vicinity":9884,"judging":13325,"nbl":28013,"##rose":13278,"marrow":24960,"##logists":18738,"##vent":15338,"running":2770,"reluctant":11542,"react":10509,"unmarked":25779,"interstate":7553,"skip":13558,"ʔ":1139,"bow":6812,"architectural":6549,"120":6036,"nba":6452,"splash":17624,"outsiders":22361,"##otto":23052,"##ulous":16203,"‿":1534,"##alo":23067,"differently":11543,"whistle":13300,"atheist":23503,"restoration":6418,"beta":8247,"[unused596]":601,"hint":9374,"fungus":16622,"brewster":23009,"primal":22289,"concept":4145,"outlying":25376,"robbery":13742,"subfamily":10946,"##lage":20679,"reassured":26350,"demonstrating":14313,"hq":16260,"##な":30193,"cicero":23080,"nostrils":15325,"affects":13531,"branded":11180,"threw":4711,"##llan":19036,"dress":4377,"edwards":7380,"stevie":17458,"##،":29814,"blood":2668,"##berger":14859,"vial":28475,"capcom":26861,"doping":23799,"##ey":3240,"##镇":30492,"revision":13921,"casualty":19844,"##icles":20921,"looted":27775,"airports":13586,"##მ":29984,"adamant":29502,"##rito":28414,"hair":2606,"[unused318]":323,"consciously":24447,"anger":4963,"reforming":29455,"##oop":18589,"saxophone":8283,"nudged":18666,"##ʸ":29710,"abstraction":24504,"##ₐ":30089,"thayer":25563,"##lal":13837,"snail":10879,"scrolls":23074,"ף":1260,"layton":23103,"##bai":26068,"mlb":10901,"motorola":29583,"posture":16819,"ᅯ":1479,"tolerance":13986,"recommend":16755,"pivotal":20369,"avalon":18973,"##raphy":26228,"1629":27882,"ah":6289,"broom":23528,"outspoken":22430,"aperture":18892,"[unused899]":904,"astronomer":15211,"##い":30173,"##ies":3111,"transmit":19818,"traps":16735,"inferno":21848,"moment":2617,"##ginal":24965,"##ifer":23780,"nasty":11808,"northbound":20055,"##ᄀ":29991,"brighter":16176,"bloomberg":22950,"coasts":20266,"##愛":30379,"vu":24728,"[unused187]":192,"canucks":26177,"amalgamated":17143,"imports":17589,"sichuan":20980,"deportivo":23696,"ismail":19214,"##werk":29548,"boeing":10321,"43":4724,"athletes":7576,"peacock":18931,"hymns":17777,"dragoons":28069,"##ulo":18845,"garion":12523,"thunder":8505,"julian":6426,"##rta":13320,"burials":23109,"alphabet":12440,"##hun":17157,"grams":20372,"##br":19892,"stacks":20829,"quest":8795,"trembling":10226,"parole":17393,"co₂":20190,"thousands":5190,"bilateral":17758,"##dice":24598,"##'":29618,"optics":21026,"##cape":19464,"gibbs":15659,"severely":8949,"##nco":15305,"galway":14370,"domino":23968,"##nais":28020,"##mism":26725,"discharged":14374,"##uso":26658,"##osta":28696,"clubs":4184,"pioneered":16193,"thanks":4283,"##lving":25780,"appendix":22524,"equipment":3941,"adjective":24931,"##ʻi":26444,"etymology":26803,"##vus":27500,"[unused90]":91,"listings":26213,"##b":2497,"purposes":5682,"donations":11440,"##hyllum":27750,"morally":28980,"jamal":24132,"thwarted":28409,"wolf":4702,"##phonic":27385,"dvds":22477,"footage":8333,"visions":12018,"asleep":6680,"##lov":14301,"inspiration":7780,"longest":6493,"asa":17306,"assistance":5375,"uniforms":11408,"##olved":16116,"##oir":21165,"h":1044,"boasts":21979,"bogota":21240,"hook":8103,"optical":9380,"runs":3216,"[unused429]":434,"##ados":28118,"defining":12854,"ventral":23420,"stuffed":11812,"unhappy":12511,"hideout":29588,"ganga":28646,"relieve":15804,"fame":4476,"eagle":6755,"discovered":3603,"miracle":9727,"deficit":15074,"م":1295,"cafe":7668,"waltz":17569,"stanisław":26133,"ₕ":1564,"floors":8158,"reproduce":21376,"nape":23634,"angelina":23847,"69":6353,"maia":23478,"sponsors":13162,"attends":23933,"##nsen":29428,"[unused669]":674,"seeker":29444,"mixture":8150,"sa":7842,"backyard":16125,"inaccessible":29104,"papa":13008,"##ection":18491,"hamilton":5226,"cynical":26881,"staggering":26233,"revolves":19223,"o":1051,"mused":22335,"downstairs":10025,"multiple":3674,"shade":8703,"odi":21045,"[unused456]":461,"dish":9841,"nashville":8423,"invasions":23536,"gotten":5407,"1903":5778,"prospective":17464,"salazar":25315,"##chment":22729,"almeida":29555,"##rocity":21735,"guessing":16986,"followers":8771,"policeman":14460,"##仁":30284,"capsule":18269,"simulate":26633,"##yla":23943,"eritrea":26040,"pod":17491,"##uring":12228,"graduation":7665,"islands":3470,"##tate":12259,"##orted":15613,"mouth":2677,"##bid":17062,"integration":8346,"##channel":26058,"obvious":5793,"adjustable":26404,"##inging":23180,"4th":4343,"mad":5506,"loser":10916,"silicon":13773,"##hedron":26440,"rum":19379,"##江":30423,"your":2115,"比":1890,"let":2292,"ghana":9701,"1580":28278,"willis":12688,"##sul":23722,"cover":3104,"##omo":19506,"##内":30299,"confess":18766,"gazing":16448,"##vao":24682,"lyons":16642,"ata":29533,"jock":23407,"☆":1621,"##grad":16307,"annals":16945,"georges":10870,"##culture":14561,"##oton":25862,"petersburg":8062,"strapped":18019,"mono":18847,"##wicz":21355,"horns":11569,"[unused936]":941,"warrant":10943,"505":28952,"##cona":24366,"maud":21696,"shifts":12363,"##worm":22769,"testimony":10896,"keenan":26334,"##ŋ":29673,"paralympic":17029,"gable":13733,"##tin":7629,"##ق":29834,"franklin":5951,"gearbox":22227,"leasing":26707,"##rde":25547,"dil":29454,"occurrence":14404,"kits":18628,"294":28135,"specimens":9908,"enrolled":8302,"hen":21863,"realize":5382,"assembled":9240,"destroyers":13242,"indonesian":9003,"creepy":17109,"##þ":29670,"marjorie":21562,"bam":25307,"[unused312]":317,"aquatic":13582,"pornography":19378,"roman":3142,"fl":13109,"##jo":5558,"bell":4330,"polynomials":28175,"unification":16905,"##esis":19009,"exit":6164,"ng":12835,"[unused167]":172,"##ར":29970,"economic":3171,"copied":15826,"faux":29276,"chunk":20000,"barron":23594,"maritime":7803,"rods":19485,"dixie":18910,"jurgen":23171,"defines":11859,"debated":15268,"hilda":21589,"disks":23999,"##ncies":14767,"[unused353]":358,"ascent":16354,"smaller":3760,"widened":8723,"##en":2368,"continually":14678,"factors":5876,"rbis":23583,"formerly":3839,"untouched":22154,"##dlow":27002,"##ability":8010,"philippe":11169,"patterns":7060,"chin":5413,"curtiss":26431,"[unused334]":339,"ণ":1361,"valentin":24632,"##ic":2594,"ο":1169,"fitch":26062,"##bots":27014,"benefactor":27398,"kinase":21903,"##phus":25255,"##oka":12352,"sneak":13583,"basel":14040,"aviation":5734,"data":2951,"一":1740,"af":21358,"democrat":7672,"algerian":16953,"##ris":6935,"ও":1352,"swinging":11820,"##с":29747,"[unused436]":441,"##ping":4691,"320":13710,"##ctor":16761,"hurriedly":23878,"small":2235,"##gration":29397,"beside":3875,"竹":1933,"rumor":19075,"tied":5079,"delicately":28814,"##sea":17310,"##head":4974,"chu":14684,"hebrew":6836,"history":2381,"violate":23640,"selma":28112,"notebook":14960,"##rson":17753,"chrysler":17714,"drying":17462,"synthesizers":22211,"freiburg":22871,"successively":24288,"instructor":9450,"cooperate":17654,"##cken":19766,"##す":30184,"alta":23647,"farther":8736,"##π":29731,"##dance":25514,"##dham":17661,"greaves":27808,"forcibly":20951,"fat":6638,"176":18561,"pantheon":24152,"schools":2816,"circled":14867,"sensory":16792,"tensions":13136,"##hop":18471,"##via":9035,"prestigious":8919,"mosquito":22529,"installment":18932,"inspection":10569,"baylor":23950,"eras":28500,"##rey":15202,"succeeding":13034,"intuitive":29202,"degrees":5445,"estonia":10692,"blame":7499,"philanthropic":25321,"patton":18090,"##feld":8151,"##ako":20411,"unemployment":12163,"shares":6661,"nipple":14298,"mast":15429,"##urai":24804,"cloak":11965,"##bel":8671,"hamburger":24575,"₉":1556,"myths":17218,"wince":29585,"resource":7692,"mesh":20437,"exchequer":28889,"bibliography":24751,"kerr":14884,"[unused572]":577,"mid":3054,"kerry":11260,"[unused98]":99,"blended":19803,"corrected":13371,"tee":17170,"##quette":29416,"aggregate":9572,"shielded":25474,"星":1866,"85":5594,"##8th":28264,"[unused369]":374,"##rte":19731,"courtyard":10119,"knife":5442,"lucky":5341,"hierarchical":25835,"extremely":5186,"color":3609,"teaches":12011,"##yama":11613,"##′":30066,"42":4413,"deputies":11964,"goblin":22639,"negotiated":13630,"myth":10661,"ж":1186,"mma":21021,"giles":13287,"junk":18015,"##⇒":30119,"nec":26785,"##nsor":29577,"ᄋ":1463,"##hil":19466,"##od":7716,"[unused329]":334,"uss":7234,"##naud":26160,"consortium":12360,"ab":11113,"lovers":10205,"catchment":22865,"khalifa":27925,"variations":8358,"光":1770,"sheldon":19369,"nestor":25397,"##oa":10441,"ruben":19469,"autumn":7114,"ticked":26019,"piece":3538,"1801":12410,"dfb":28894,"570":24902,"[unused643]":648,"intervention":8830,"dummy":24369,"##aton":22436,"hail":16889,"godfrey":18238,"rectory":24606,"381":29335,"perfectly":6669,"velocity":10146,"capture":5425,"eucalyptus":27111,"##gata":26589,"km²":3186,"london":2414,"operative":12160,"heartbeat":12251,"[unused242]":247,"anymore":4902,"map":4949,"hospice":29277,"##ctric":22601,"engraving":23501,"##ractive":26884,"connie":16560,"deeds":15616,"##rate":11657,"##vita":28403,"pulsing":23139,"harmful":17631,"##‘":30055,"enjoyed":5632,"sculpture":6743,"westchester":25489,"modified":6310,"toledo":13163,"montrose":24990,"circumstance":25652,"aide":14895,"joel":8963,"husky":18758,"[unused630]":635,"metis":26057,"yerevan":23383,"59":5354,"##ines":10586,"[unused301]":306,"notation":14869,"shot":2915,"badges":23433,"##field":3790,"foundry":19853,"croatian":7963,"1635":27426,"alice":5650,"flick":17312,"elevator":7764,"deaf":12419,"3d":7605,"harp":14601,"##nock":18057,"instructional":23219,"whoa":23281,"##lves":20899,"palma":23985,"##base":15058,"clicks":29225,"শ":1374,"southampton":11833,"confession":12633,"##andra":29159,"wat":28194,"buckley":17898,"fei":24664,"415":24690,"commonly":4141,"controlling":9756,"lister":27177,"averaged":11398,"ending":4566,"ore":10848,"ल":1334,"dubious":22917,"accused":5496,"sour":14768,"expand":7818,"passenger":4628,"attractions":13051,"aires":9149,"drank":10749,"antrim":24142,"module":11336,"fukuoka":26998,"fountain":9545,"##icative":25184,"##ound":28819,"antoine":12445,"##ette":7585,"raju":25098,"colonization":18962,"wavelengths":29263,"##yna":18279,"angel":4850,"dickinson":17590,"french":2413,"impulse":14982,"hummed":26747,"intervene":18793,"eager":9461,"publications":5523,"public":2270,"just":2074,"crimson":11466,"artworks":22000,"dishes":10447,"considers":10592,"degraded":26131,"##岡":30358,"ང":1427,"territories":6500,"decree":10037,"vegetarian":23566,"[unused140]":145,"dig":10667,"mirrored":22243,"socialism":14649,"##drop":25711,"assigns":24022,"sprinter":19938,"[unused179]":184,"goodness":15003,"debt":7016,"##used":13901,"[unused313]":318,"foreword":23059,"discus":26047,"spanning":13912,"demo":9703,"##riated":25475,"##宿":30352,"##uld":21285,"unpredictable":21446,"##nius":20447,"[unused946]":951,"##ergy":24395,"depicts":11230,"[unused738]":743,"michaels":17784,"rivalry":10685,"altering":22552,"jarvis":21072,"robson":23698,"interested":4699,"patiently":19080,"properties":5144,"ך":1251,"similarities":12319,"fated":27442,"linking":11383,"messina":27270,"1940":3878,"written":2517,"duffy":17971,"graffiti":17990,"dentistry":26556,"[unused960]":965,"betrayal":14583,"nickname":8367,"upgrade":12200,"backlash":25748,"willing":5627,"revisions":24699,"##lion":18964,"muller":12304,"##ering":7999,"asher":17243,"##tip":25101,"##ᵢ":19109,"naga":26539,"presidency":8798,"morse":17107,"reverend":10547,"dancers":10487,"facial":13268,"advocating":20324,"wet":4954,"##guard":18405,"6th":5351,"##eye":17683,"stormed":16201,"##enberg":11029,"topics":7832,"1729":28449,"##gman":25494,"what":2054,"##puram":17809,"unreleased":13270,"##ilation":29545,"textures":29343,"curiosity":10628,"1641":25702,"jerry":6128,"diagnostic":16474,"reacting":24868,"index":5950,"sloping":24724,"cursing":19752,"##lom":21297,"nine":3157,"sociology":11507,"##eering":20550,"radical":7490,"robyn":28047,"midsummer":28171,"correctional":20873,"eugen":29273,"##lford":23211,"##fm":16715,"coincide":19680,"344":29386,"sorrow":14038,"な":1667,"pissed":9421,"##lik":18393,"reluctantly":11206,"junction":5098,"mitochondrial":23079,"tyrant":26508,"runways":24578,"nam":15125,"##鈴":30491,"##hort":27794,"##ko":3683,"avenue":3927,"₈":1555,"slim":11754,"birthplace":14508,"[unused393]":398,"figuring":23218,"overtook":28920,"kylie":9008,"1996":2727,"##本":30402,"##bah":24206,"electors":19165,"conventional":7511,"12":2260,"compromised":20419,"marcel":13389,"knitting":26098,"alessandro":17956,"ニ":1716,"lean":8155,"grimm":24287,"limestone":9771,"warsaw":8199,"pressing":7827,"[unused112]":117,"eden":10267,"emmett":25685,"cellar":15423,"citizen":6926,"versa":18601,"##tore":19277,"short":2460,"ethan":6066,"hugely":27564,"tailor":22701,"eki":23174,"[unused573]":578,"helium":22764,"accolades":27447,"triangles":27189,"qatar":12577,"tandem":18231,"##kney":26993,"enforce":16306,"telenovela":25754,"louisiana":5773,"continuous":7142,"16th":5767,"##care":16302,"fargo":23054,"[unused678]":683,"its":2049,"pioneering":13280,"cerro":25498,"robbers":28019,"euclidean":25826,"modernized":27140,"[unused569]":574,"travelling":8932,"exasperated":24379,"1667":27643,"collier":20466,"feldman":26908,"presented":3591,"tangled":14170,"116":12904,"sob":17540,"lately":9906,"prostitution":15016,"philips":19087,"[unused763]":768,"[unused955]":960,"console":10122,"##北":30307,"malta":9933,"earliest":5700,"revenue":6599,"##mouth":14359,"presentation":8312,"visas":24487,"nobleman":18487,"motif":16226,"dt":26718,"pilgrimage":14741,"duncan":7343,"adopted":4233,"alignment":12139,"[unused94]":95,"spins":23371,"enforcement":7285,"holiday":6209,"hesitate":16390,"giggle":17565,"##চ":29892,"defense":3639,"uniting":26112,"ethernet":26110,"fireplace":13788,"cain":11557,"wichita":18614,"秀":1928,"guarantee":11302,"evacuation":13982,"##ease":19500,"mora":26821,"democracy":7072,"aluminum":13061,"aleppo":22973,"winnipeg":11093,"crap":10231,"vikram":29063,"colourful":26102,"##ga":3654,"variable":8023,"mosaic":16061,"desert":5532,"oder":27215,"monetary":12194,"genuinely":15958,"profile":6337,"hd":10751,"mist":11094,"unusual":5866,"delilah":23006,"[unused861]":866,"##ell":5349,"punk":7196,"##itive":13043,"antioch":19078,"garland":17017,"breton":16659,"red":2417,"##ido":13820,"lissa":20244,"variety":3528,"sudbury":26487,"stands":4832,"jessie":10934,"massif":24875,"juan":5348,"hernandez":13688,"##erik":27350,"##d":2094,"saline":28413,"##42":20958,"shooter":13108,"duck":9457,"trickle":26027,"##chin":17231,"if":2065,"dinamo":22306,"inward":20546,"[unused842]":847,"encourages":16171,"surpassed":15602,"sf":16420,"sutherland":14274,"wished":6257,"si":9033,"nz":20008,"examination":7749,"residency":14079,"defects":18419,"##yra":19563,"iceland":10399,"playing":2652,"versatile":22979,"sculptures":10801,"##ling":2989,"brat":28557,"vita":19300,"so":2061,"##fahan":28975,"##tes":4570,"jesus":4441,"+":1009,"##plify":28250,"iaaf":21259,"rest":2717,"estonian":12029,"##nac":18357,"climbed":6589,"provincial":4992,"cambodia":12899,"1911":5184,"bags":8641,"wolverhampton":20085,"establishments":17228,"2003":2494,"warships":15964,"dir":16101,"sampson":22041,"##wood":3702,"wandered":13289,"dispose":27764,"[unused644]":649,"sailing":8354,"[unused562]":567,"ile":17869,"campuses":13696,"punished":14248,"correspond":17254,"##just":29427,"safari":23591,"##folia":21710,"altitude":7998,"openings":16556,"##tov":26525,"reprint":25364,"han":7658,"р":1195,"prophecy":14951,"rebellious":22614,"shu":18454,"##ᴵ":30029,"decorative":11584,"pronouns":26028,"healthy":7965,"##zziness":29212,"botanist":17098,"separated":5459,"hotspur":25985,"favourite":8837,"worries":15508,"crashing":12894,"noun":15156,"272":24231,"##sto":16033,"maxwell":10691,"##ries":5134,"olson":21583,"contests":15795,"##mple":23344,"noticed":4384,"taller":12283,"audit":15727,"##nail":25464,"flinch":23224,"synod":15374,"furiously":20322,"brittany":12686,"grandma":13055,"lombard":23441,"aspiring":22344,"##dal":9305,"grasslands":26183,"##פ":29807,"##dent":16454,"takeover":15336,"starring":4626,"##伊":30288,"boredom":29556,"[unused1]":2,"symbols":9255,"mustang":18851,"[unused632]":637,"recruits":15024,"事":1751,"##mate":8585,"て":1665,"##xy":18037,"baskets":25946,"handicap":15822,"engaging":11973,"jalan":28410,"won":2180,"mouthed":20521,"schubert":24645,"though":2295,"[unused34]":35,"##udeau":27627,"187":19446,"yielded":17544,"paler":24489,"ʎ":1135,"李":1877,"rn":29300,"brave":9191,"considering":6195,"##don":5280,"burger":15890,"visually":17453,"##ぬ":30195,"人":1756,"ranks":6938,"##cute":26869,"romeo":12390,"trades":14279,"aimed":6461,"##ago":23692,"##nous":18674,"refuse":10214,"polls":14592,"forested":15205,"erupted":12591,"pretended":14688,"salman":28542,"rappers":28257,"bodyguards":25681,"surfing":19967,"deserves":17210,"smiley":27420,"[unused621]":626,"palais":22113,"tanzania":11959,"##gano":29451,"[unused315]":320,"##cko":19665,"bathroom":5723,"##cision":28472,"comets":27138,"1957":3890,"འ":1433,"##sibility":28255,"198":20003,"##ome":8462,"mantra":25951,"##git":23806,"chef":10026,"##type":13874,"coughing":21454,"antonio":4980,"kosovo":11491,"shoots":11758,"trade":3119,"pointer":20884,"condom":20910,"mannheim":25116,"shades":13178,"##rling":22036,"234":22018,"cs":20116,"##ntes":17340,"##mc":12458,"shortage":15843,"317":26628,"[unused434]":439,"ignited":22395,"##tracted":24301,"2016":2355,"[unused174]":179,"expenditure":20700,"alcoholism":25519,"slapping":22021,"caves":10614,"peppers":23582,"testosterone":25937,"blackberry":25935,"captains":15755,"fork":9292,"measures":5761,"##chus":16194,"##making":12614,"chancel":16482,"understood":5319,"hideous":22293,"##jk":15992,"##ャ":30254,"[unused911]":916,"##ops":11923,"geneva":9810,"1887":6837,"illustrious":26150,"willow":11940,"irritated":15560,"##ए":29850,"sparta":21251,"learners":26262,"##™":30108,"baton":15302,"upper":3356,"##sper":17668,"conclusion":7091,"##kai":11151,"mounting":15986,"mean":2812,"champ":24782,"yue":27163,"produce":3965,"ray":4097,"internacional":27607,"griffiths":21960,"women":2308,"breakaway":26321,"ridges":16386,"cory":18342,"strauss":16423,"intercept":19115,"[unused430]":435,"##leton":19263,"evan":9340,"passionate":13459,"##♣":30151,"##目":30444,"orchard":15623,"devoted":7422,"mcgregor":23023,"courtship":28592,"christina":12657,"510":23475,"mechanics":9760,"subsequent":4745,"futuristic":28971,"und":6151,"beat":3786,"antennae":28624,"vittorio":25914,"giants":7230,"park":2380,"verb":12034,"screams":11652,"thyroid":29610,"ty":5939,"[unused402]":407,"harvey":7702,"identification":8720,"299":25926,"natalie":10829,"det":20010,"snakes":12971,"1830s":20400,"susan":6294,"29":2756,"lin":11409,"faerie":27498,"##abad":10542,"pun":26136,"[unused120]":125,"span":8487,"375":18034,"##sse":11393,"surfaced":15791,"china":2859,"giacomo":22873,"##シ":30232,"ancestry":11377,"dona":24260,"loving":8295,"##ב":29789,"##dya":25838,"generic":12391,"afternoons":24738,"##cho":9905,"##nc":12273,"495":29302,"distribute":16062,"catalan":13973,"##অ":29883,"##lova":24221,"proceed":10838,"ɨ":1118,"mira":18062,"proprietor":21584,"##ting":3436,"editor":3559,"fleetwood":23866,"releasing":8287,"novice":23131,"flashed":8373,"laurent":14718,"kramer":16322,"free":2489,"vanderbilt":17066,"##asco":28187,"liberties":18271,"##bham":25522,"hesitation":13431,"##比":30416,"fades":26784,"brussels":9371,"velvet":10966,"##⁵":30074,"contribute":9002,"smoothing":27045,"witchcraft":21599,"##ult":11314,"warring":28509,"rains":15811,"1917":4585,"196":20035,"puppets":26101,"deliberate":15063,"deck":5877,"bullet":7960,"##llen":12179,"kaitlyn":28584,"busted":23142,"1929":4612,"##ch":2818,"##cratic":17510,"baked":17776,"educate":16957,"inner":5110,"flesh":5771,"meaning":3574,"incumbent":7703,"86":6564,"karlsruhe":26660,"mandy":18193,"##ksha":28132,"bye":9061,"plays":3248,"freshman":10452,"##gation":12540,"##real":22852,"coefficients":21374,"charred":29030,"boycott":17757,"mule":20568,"algebraic":17390,"##twined":21077,"spread":3659,"fictional":7214,"##bered":22408,"hayward":21506,"parc":27985,"signage":29404,"commanded":6311,"fortifications":14507,"globalization":24370,"jumped":5598,"naia":29511,"dumont":25830,"readiness":19822,"##tique":28437,"lennox":21060,"##iom":18994,"gone":2908,"upwards":14873,"mat":13523,"dragons":8626,"pond":8644,"##ique":7413,"##kan":9126,"turkic":22926,"া":1378,"##iso":19565,"##cation":10719,"robots":13507,"asks":5176,"mare":11941,"gubernatorial":19100,"stucco":27443,"tongue":4416,"romance":7472,"[unused803]":808,"idol":10282,"อ":1421,"##李":30403,"##vid":17258,"investment":5211,"patented":16719,"techno":21416,"century":2301,"##roy":13238,"##igo":14031,"mural":15533,"tones":12623,"tits":25671,"##vez":26132,"sustainability":15169,"enriched":25202,"ウ":1696,"donna":10972,"biggest":5221,"increasingly":6233,"belgium":5706,"ny":6396,"buff":23176,"trois":25527,"1983":3172,"howl":22912,"316":23980,"starr":14330,"dipped":13537,"arrests":17615,"[unused716]":721,"##tag":15900,"fortune":7280,"incredibly":11757,"rails":15168,"furnace":17533,"hallmark":25812,"fates":26417,"[unused513]":518,"referencing":28789,"raged":28374,"ɑ":1110,"њ":1216,"elect":11322,"##ك":29835,"shattering":21797,"sar":18906,"pet":9004,"closer":3553,"1886":6929,"banks":5085,"sides":3903,"suddenly":3402,"scotland":3885,"nyc":16392,"streets":4534,"aria":9342,"##lson":14881,"renaissance":8028,"weaker":15863,"##cin":15459,"oh":2821,"##lateral":28277,"motorcycles":18580,"capacity":3977,"secession":22965,"54":5139,"##რ":29987,"batteries":10274,"would":2052,"##straße":24967,"rory":14285,"trophy":5384,"[unused576]":581,"buy":4965,"gestures":18327,"{":1063,"migrated":13447,"counterattack":27835,"[unused6]":7,"##lman":12624,"##₊":30086,"bike":7997,"prescription":20422,"ruthless":18101,"##ous":3560,"fractured":21726,"##cus":7874,"##sat":16846,"learnt":20215,"williamsburg":26366,"##ations":10708,"crashes":19119,"bull":7087,"seeking":6224,"172":18253,"49ers":18156,"remotely":19512,"yelled":7581,"welch":17939,"agrees":10217,"succeed":9510,"memorials":22899,"会":1763,"quake":27785,"正":1888,"fatty":19101,"country":2406,"clergyman":22232,"sharpened":26694,"rfc":14645,"##ђ":29758,"dublin":5772,"lukas":23739,"shovel":24596,"##lake":14530,"nate":8253,"dreaming":12802,"##ன":29923,"chandler":13814,"skeletons":24365,"customers":6304,"confront":14323,"##mps":25370,"nehru":23556,"compensated":29258,"##fest":14081,"congregation":7769,"1920":4444,"ᄀ":1455,"francisco":3799,"boise":23193,"glory":8294,"awareness":7073,"causing":4786,"flex":23951,"brawl":23244,"213":19883,"cooking":8434,"##are":12069,"1966":3547,"braden":27232,"##ee":4402,"until":2127,"soprano":10430,"window":3332,"wise":7968,"##bahn":16052,"##wright":26460,"り":1686,"##ɑ":29677,"rounds":6241,"##ο":29730,"##エ":30224,"plum":22088,"agents":6074,"frantic":15762,"1712":28460,"blocked":8534,"##if":10128,"##ow":5004,"belmont":17449,"remainder":6893,"contentious":29308,"appeared":2596,"##no":3630,"##ckey":29183,"discreet":29321,"triad":25355,"##eva":13331,"revoked":22837,"土":1801,"institut":17126,"herald":9536,"shatter":27271,"emigrated":11367,"##₱":30103,"susannah":20471,"saskatoon":25447,"flashes":16121,"orr":26914,"attention":3086,"##osomal":27642,"proves":16481,"coefficient":19064,"royalties":25335,"ケ":1703,"charles":2798,"invitational":20129,"bracing":25919,"hammond":11309,"##ski":5488,"billings":26124,"##85":27531,"##帝":30364,"signal":4742,"cbs":6568,"brooklyn":6613,"pg":18720,"siena":23754,"veil":15562,"ն":1231,"26th":14935,"##₃":11622,"##道":30483,"graders":23256,"layered":21323,"rarely":6524,"vision":4432,"compliant":24577,"##una":9521,"compliment":19394,"##uled":18696,"sexuality":13798,"scriptures":22481,"salt":5474,"glide":21096,"[unused216]":221,"lights":4597,"##het":27065,"cub":21987,"##illa":9386,"sandwich":11642,"malik":14360,"scare":12665,"audible":19525,"sword":4690,"blew":8682,"eliot":16292,"incompatible":25876,"buckingham":17836,"dawned":27702,"fills":17469,"ochreous":23474,"hal":11085,"ebony":27680,"visionary":28036,"designations":26672,"ti":14841,"widows":24835,"##lux":25148,"kv":24888,"nan":16660,"reminded":6966,"[unused142]":147,"prime":3539,"competence":22219,"##genic":16505,"mandate":11405,"##quay":25575,"andre":7213,"brains":14332,"##race":22903,"manor":6952,"[unused485]":490,"intellectual":7789,"ᵘ":1506,"1943":3826,"fans":4599,"northamptonshire":21367,"moons":23377,"stamp":11359,"teddy":11389,"writ":25697,"pole":6536,"rents":28206,"kayla":26491,"naturalized":27558,"arithmetic":20204,"##mith":19864,"##omi":20936,"elaborated":25187,"nickelodeon":20814,"consulting":10552,"deceased":10181,"laurie":16450,"crippled":24433,"##fire":10273,"##阿":30497,"linen":17517,"valve":10764,"toro":23790,"reminder":14764,"render":17552,"choreographer":17334,"lit":5507,"marrying":13516,"direction":3257,"preoccupied":23962,"lizzie":15860,"chaotic":19633,"phoebe":18188,"obstacle":18355,"chewed":18362,"47":4700,"##lore":20186,"##ae":6679,"recordings":5633,"threats":8767,"##uet":23361,"boiling":16018,"seemingly":9428,"racecourse":15948,"heated":9685,"bela":20252,"macdonald":10406,"##ine":3170,"stuck":5881,"##book":8654,"drenched":25265,"durban":25040,"thanked":15583,"banjo":16698,"##arty":23871,"pursed":21954,"deco":21933,"##ace":10732,"##ev":6777,"forbidden":10386,"ankle":10792,"##h":2232,"smarter":25670,"meal":7954,"nosed":29338,"landowners":20152,"literally":6719,"strangers":12358,"airlift":20019,"showtime":23811,"co":2522,"radha":26498,"log":8833,"##np":16275,"bengali":11267,"[unused484]":489,"passageway":27336,"00":4002,"##ᵉ":30035,"##po":6873,"[unused511]":516,"1772":17483,"massachusetts":4404,"armenian":7508,"appellate":23240,"luminous":25567,"squirrel":18197,"jakarta":14426,"fantasia":29203,"overheard":20443,"311":23532,"a1":17350,"hare":14263,"中":1746,"##sboro":25623,"wishes":8996,"##ito":9956,"arjun":26024,"invading":17657,"alerted":22333,"451":28161,"##文":30387,"dreamer":24726,"fin":10346,"[unused895]":900,"succeeded":4594,"rooted":15685,"vague":13727,"dialogues":22580,"benedictine":21139,"fast":3435,"interrogation":16871,"rafe":15819,"continual":27222,"##zano":24147,"##ronia":28140,"action":2895,"continuing":5719,"##dh":16425,"congress":3519,"thousand":4595,"eggs":6763,"ample":20851,"benji":27231,"[unused42]":43,"surrender":7806,"stuttgart":13022,"bard":22759,"##ས":29972,"perhaps":3383,"##osing":18606,"lehman":28444,"whipped":12428,"maori":12600,"finished":2736,"most":2087,"unavailable":20165,"ryu":19367,"genoa":15771,"vineyards":20597,"stimulation":20858,"im":10047,"23rd":13928,"marcus":6647,"[unused122]":127,"prism":26113,"lizard":15450,"medal":3101,"##楊":30409,"breached":25769,"sheen":20682,"[unused52]":53,"employed":4846,"##♦":30153,"bays":13933,"hyundai":25983,"unite":15908,"boyd":12164,"##dee":26095,"erection":13760,"standardized":16367,"murderous":25303,"iris":11173,"##tail":14162,"clicked":13886,"recommendation":12832,"appreciated":12315,"lutheran":10034,"migration":9230,"bad":2919,"ن":1296,"itself":2993,"##ulton":22145,"carter":5708,"##⁶":30075,"vinci":23765,"1840s":19308,"hopkins":10239,"raising":6274,"management":2968,"##jali":28948,"##quent":15417,"labrador":18604,"ware":16283,"interpretation":7613,"##nka":25804,"##pus":12207,"bombers":10544,"compartments":27998,"blanco":20036,"usher":20774,"##un":4609,"autonomous":8392,"monty":18446,"nest":9089,"435":24125,"ridden":15230,"realizes":10919,"##ches":8376,"woke":8271,"government":2231,"nikolai":13870,"##nae":17452,"merely":6414,"fabulous":18783,"laws":4277,"1826":11931,"vastly":24821,"##len":7770,"excavations":14018,"trivial":20610,"perceive":23084,"ounce":19471,"checks":14148,"##mler":18602,"terms":3408,"remington":25282,"##ᅭ":30013,"##furt":24428,"mayo":14415,"corey":18132,"ronin":29249,"latham":28737,"capt":14408,"15":2321,"##lating":22248,"wielding":26974,"georgian":9166,"newcastle":8142,"belongs":7460,"smackdown":22120,"returned":2513,"##ated":4383,"outlaw":19104,"disregard":27770,"##ably":8231,"eileen":20495,"##kee":20553,"polymers":27216,"##zcz":29419,"mcbride":18958,"contest":5049,"elongated":17876,"truman":15237,"freak":11576,"##ץ":29808,"##भ":29866,"##lim":17960,"##oteric":29112,"##eda":11960,"##ssing":18965,"conference":3034,"taunting":29442,"heartland":27399,"##rk":8024,"##食":30504,"##zily":28431,"yen":18371,"##%":29616,"singers":8453,"wynn":25328,"fernandez":12023,"northampton":15944,"tick":16356,"worst":5409,"seo":27457,"caring":11922,"##hoot":23416,"platforms":7248,"heats":18559,"cypriot":18543,"kuwait":13085,"kim":5035,"knowing":4209,"detached":12230,"acquisition":7654,"##say":24322,"##ducted":29510,"alliances":21277,"木":1875,"##uke":15851,"ratification":27369,"gibson":9406,"forged":16158,"ア":1693,"owns":8617,"white":2317,"ز":1281,"cruelty":18186,"国":1799,"wisdom":9866,"rica":11509,"barber":13362,"deformation":29130,"helpful":14044,"##rgen":25892,"[unused988]":993,"donnell":18016,"shelf":11142,"caf":24689,"conrad":10931,"spurs":18205,"broad":5041,"surely":7543,"in":1999,"olympic":4386,"##inatory":28230,"##မ":29973,"##gna":16989,"kicker":22652,"lawsuit":9870,"†":1526,"##imus":19315,"worse":4788,"kn":14161,"45":3429,"poet":4802,"routledge":21180,"puddle":25081,"dr":2852,"meng":27955,"unexpectedly":14153,"hip":5099,"persisted":19035,"like":2066,"geschichte":28299,"tightened":8371,"avon":16131,"bjp":24954,"##oids":17086,"tricked":24929,"[unused636]":641,"enlist":28845,"exceeds":23651,"##tura":27431,"lattice":17779,"##ℝ":30107,"twentieth":9086,"misery":14624,"boss":5795,"##asian":24145,"##aja":22734,"##400":29537,"selector":27000,"cupping":25076,"pilasters":26752,"##ophone":25232,"annexed":13291,"ruling":6996,"sixty":8442,"ɴ":1124,"nato":10079,"autobiographical":18534,"##ள":29929,"stature":21120,"hardware":8051,"curls":14484,"cl":18856,"##dridge":21482,"grimly":22561,"412":25873,"1820":11102,"##ち":30188,"advanced":3935,"tried":2699,"mont":18318,"##isms":22556,"watering":25813,"tenth":7891,"##pire":20781,"watched":3427,"motivated":12774,"vulcan":25993,"werewolves":18306,"kumar":9600,"meters":5563,"banner":9484,"debts":13930,"##nat":19833,"estranged":24211,"everest":23914,"govt":22410,"##tner":18885,"##ш":29753,"##rcle":21769,"journalism":8083,"interchange":8989,"listened":7791,"##eving":23559,"श":1336,"gorilla":23526,"trooper":28224,"avid":18568,"using":2478,"##analysis":25902,"alfredo":19423,"bison":22285,"accord":15802,"fueled":17999,"peanuts":27613,"prosecutor":12478,"sr":5034,"‘":1520,"stat":28093,"##chs":18069,"[unused493]":498,"faust":24021,"screenwriter":11167,"##張":30370,"法":1901,"##val":10175,"respect":4847,"mocked":24195,"gunn":22079,"##stock":14758,"historic":3181,"fearful":19725,"##ogan":21131,"baffled":29088,"lays":19764,"##ori":10050,"fifty":5595,"stationary":17337,"counties":5721,"indonesia":6239,"circular":8206,"lingering":15304,"server":8241,"sorts":11901,"churchill":10888,"schooner":21567,"##ining":24002,"dung":29328,"circle":4418,"[unused759]":764,"roaming":24430,"##nes":5267,"headlines":19377,"mechanically":27846,"##stituting":21532,"##eric":22420,"stems":12402,"ska":24053,"anxious":11480,"bologna":14102,"rm":28549,"##shah":25611,"purely":11850,"1707":25029,"bs":18667,"[unused607]":612,"cowboy":11762,"neighborhoods":11681,"bothered":11250,"mein":24182,"glen":8904,"##pate":17585,"shanghai":8344,"forgotten":6404,"aquatics":26649,"mammals":11993,"mariana":22097,"actresses":19910,"##nai":26416,"toad":21344,"dax":27116,"loco":28046,"defences":16828,"evident":10358,"forearms":27323,"demons":7942,"nbc":6788,"teach":6570,"rook":28620,"npr":21411,"idea":2801,"vin":19354,"tyne":17742,"while":2096,"homme":26574,"garner":18661,"##inium":27585,"goofy":27243,"fusiliers":27207,"survivors":8643,"##aring":22397,"jessica":8201,"buffet":28305,"isabelle":13942,"1944":3646,"mckenna":21749,"substantially":12381,"shrug":13409,"serbian":6514,"coloured":11401,"volley":28073,"siemens":22108,"obtain":6855,"sas":21871,"riverside":12497,"approved":4844,"2019":10476,"chorus":7165,"livingston":14109,"encompass":25281,"[unused488]":493,"compelling":17075,"宿":1826,"abbreviation":22498,"[unused123]":128,"playstation":9160,"##music":27275,"referred":3615,"##13":17134,"##hly":27732,"lennon":14294,"operating":4082,"chi":9610,"bedroom":5010,"##astic":20875,"vantage":27274,"ohio":4058,"subsidiary":7506,"dalai":28511,"xvi":16855,"十":1783,"characters":3494,"solution":5576,"jacobs":12988,"##ᅵ":30019,"goodman":14514,"##bc":9818,"##chemist":24229,"system":2291,"##tad":17713,"malayalam":12998,"markets":6089,"##air":11215,"player":2447,"rogers":7369,"##mme":20058,"##ene":8625,"basque":13915,"joachim":17286,"##miento":28883,"yearning":29479,"fifties":25942,"mons":29408,"ambush":15283,"teenager":10563,"##cks":10603,"drowned":12805,"kid":4845,"replaces":20736,"##gal":9692,"ד":1244,"江":1897,"##ᄏ":30002,"southland":29121,"exports":14338,"##suit":28880,"celeste":21113,"##phobia":24920,"chesterfield":22699,"an":2019,"main":2364,"falkland":25257,"automatically":8073,"ق":1292,"serene":25388,"##kian":28545,"rafael":10999,"career":2476,"sharp":4629,"cues":23391,"universal":5415,"大":1810,"constructive":26157,"##eding":17819,"recreational":10517,"casey":9036,"shootout":18297,"[unused207]":212,"##factory":21450,"attitudes":13818,"buddhism":11388,"kobayashi":28930,"trained":4738,"chiang":17684,"sloane":17558,"conquer":16152,"promenade":26815,"peacekeeping":28364,"##ク":30228,"teamed":12597,"upstairs":8721,"[unused605]":610,"ravaged":25537,"##waite":29601,"discipline":9009,"reilly":13875,"##mbled":23931,"falcon":11684,"well":2092,"locate":12453,"vega":15942,"##board":6277,"313":22997,"irregularities":28868,"exploding":20728,"sleepy":17056,"##eville":21187,"garlic":20548,"explosives":14792,"უ":1454,"sparrow":19479,"##„":30060,"shouted":6626,"parapet":27372,"custer":28888,"##ndi":16089,"spokane":21878,"oliveira":24263,"spp":26924,"prakash":22233,"mollusk":13269,"48th":27787,"[unused773]":778,"##s":2015,"theirs":17156,"##oic":19419,"correction":18140,"##lund":18028,"playhouse":17408,"bleed":19501,"duly":25073,"stevenson":13636,"vertical":7471,"[unused431]":436,"##trust":24669,"##ն":29778,"##ratic":23671,"##city":12972,"runway":9271,"sherman":11011,"##ush":20668,"blending":23293,"inverse":19262,"vocational":13099,"quit":8046,"##meyer":24344,"guido":20239,"feels":5683,"highlights":11637,"tabloid":24173,"##ucher":22368,"coach":2873,"slide":7358,"##iff":13355,"##nza":16786,"ae":29347,"whoever":9444,"guthrie":19952,"journalists":8845,"intended":3832,"darkly":27148,"invites":18675,"accomplished":8885,"metric":12046,"feature":3444,"meant":3214,"tia":27339,"##rre":14343,"pitched":8219,"worker":7309,"reintroduced":28263,"ox":23060,"holds":4324,"dairy":11825,"73":6421,"stoke":13299,"quotes":16614,"##00":8889,"cremated":28376,"architecture":4294,"mara":13955,"##ハ":30244,"persian":4723,"chores":27091,"rays":9938,"##ity":3012,"penn":9502,"executions":22679,"1625":26263,"##gur":27390,"annoyed":11654,"acquiring":13868,"assam":15181,"mistress":10414,"hardy":9532,"possessive":22105,"helens":24074,"funky":24151,"eva":9345,"xi":8418,"##lich":18337,"##ء":29815,"dharma":20669,"[unused915]":920,"santana":21158,"ticket":7281,"powell":8997,"channel":3149,"ache":12336,"translations":11913,"residual":21961,"##rac":22648,"tubes":10868,"560":21267,"committing":16873,"keen":10326,"corruption":7897,"echo":9052,"mutation":16221,"thumbs":16784,"pluto":26930,"massage":21881,"miocene":26926,"227":21489,"##mura":16069,"##ₑ":30090,"magician":16669,"bristol":7067,"##yler":20853,"##gill":19791,"entertainer":21751,"vfl":13480,"protested":11456,"speak":3713,"##cure":23887,"##pies":13046,"forgot":9471,"commonwealth":5663,"sizes":10826,"##rf":12881,"acid":5648,"沢":1898,"##duction":16256,"stained":9702,"buys":23311,"[unused679]":684,"：":1993,"encounter":8087,"obscene":27744,"select":7276,"soaring":23990,"miniseries":13612,"5":1019,"preferences":18394,"##co":3597,"regular":3180,"・":1738,"deadly":9252,"recruitment":15680,"flirt":27978,"incapable":19907,"nme":23770,"##enter":29110,"cree":27831,"upstream":13909,"translation":5449,"##ape":24065,"slump":28702,"[unused502]":507,"sanskrit":11353,"kansas":5111,"ˣ":1153,"constructions":21913,"reinforcements":14214,"aluminium":14794,"inc":4297,"klan":26613,"##cie":23402,"sociological":24846,"brows":11347,"referenced":14964,"kc":21117,"##umatic":25360,"designate":24414,"[unused862]":867,"##vere":28943,"jaya":24120,"percival":27832,"shuffle":23046,"enhancement":22415,"hodges":19772,"820":26667,"[unused323]":328,"detecting":25952,"hussain":20093,"intend":13566,"counters":24094,"marne":25823,"1894":6539,"interpret":17841,"rebuild":14591,"52nd":26898,"beyond":3458,"prisoners":5895,"colder":21399,"buffy":18467,"felicity":27357,"##ues":15808,"recall":9131,"blowing":11221,"legitimate":11476,"##working":21398,"1796":13885,"telecast":28803,"holland":7935,"malvern":28082,"bluff":14441,"sixteen":7032,"cry":5390,"elliptical":27213,"contingent":15445,"##sel":11246,"decisive":13079,"##qu":28940,"sparkle":26831,"citation":11091,"alba":18255,"eastbound":24773,"##all":8095,"##ania":13241,"deed":15046,"##ible":7028,"ling":17002,"kappa":16000,"quakers":28301,"advertising":6475,"##mail":21397,"barr":19820,"repairing":26296,"ranged":15844,"##itz":8838,"saharan":24505,"##mes":7834,"carr":12385,"bolton":12118,"banquet":19032,"very":2200,"jess":12245,"lightly":8217,"भ":1330,"knox":11994,"draught":25349,"attributed":7108,"blooded":26064,"surfaces":9972,"##rell":16230,"collingwood":20044,"##∨":30130,"acids":12737,"enigma":26757,"##her":5886,"chips":11772,"1851":8792,"[unused278]":283,"harmless":19741,"##cle":14321,"fastest":7915,"[unused724]":729,"1877":7557,"baroque":10456,"lullaby":29149,"alf":24493,"wylie":29152,"technologies":6786,"remembers":17749,"##lan":5802,"eastman":24252,"proudly":18067,"[unused606]":611,"ions":15956,"curtains":14694,"author":3166,"nanjing":21455,"easton":21636,"highlighted":11548,"cutter":16343,"explode":15044,"##kka":15714,"nantes":25387,"tab":21628,"beethoven":15461,"savior":24859,"onward":15834,"inflation":14200,"##智":30395,"##resses":25932,"bigger":7046,"entitled":4709,"prem":26563,"camille":16675,"##tar":7559,"penetrated":21653,"climates":24734,"convent":10664,"identified":4453,"[unused346]":351,"orgasm":13892,"plucked":20780,"##olt":27914,"##hay":24180,"yahoo":20643,"bas":19021,"auction":10470,"passage":6019,"く":1653,"mcguire":23872,"soaking":22721,"echoed":10187,"blackish":22032,"nicknamed":9919,"displacement":13508,"m²":7030,"sofia":8755,"botswana":19414,"briggs":15487,"dominates":29532,"motor":5013,"jews":5181,"1958":3845,"burgundy":18383,"lair":21039,"[unused263]":268,"reply":7514,"fort":3481,"##dev":24844,"haggard":27912,"navajo":22440,"apprenticeship":20448,"varied":9426,"turkmenistan":25432,"bertram":27515,"importance":5197,"pawn":19175,"promoted":3755,"fuse":19976,"classrooms":12463,"addressing":12786,"freddie":15528,"saul":16897,"##gement":20511,"##ワ":30262,"hannover":29209,"warned":7420,"fibers":16662,"##anus":20849,"counting":10320,"rockefeller":16696,"##c":2278,"430":19540,"『":1643,"teacher":3836,"way":2126,"##ques":10997,"interface":8278,"pcs":27019,"266":25162,"##bourg":20431,"##oys":27153,"sul":21396,"##ora":6525,"warner":6654,"ん":1691,"founded":2631,"定":1822,"sargent":27599,"marriott":26490,"lonely":9479,"sneered":28098,"##ton":2669,"##gh":5603,"arbitrary":15275,"frenzy":21517,"bedfordshire":28430,"activated":8878,"##raph":24342,"andreas":12460,"lasting":9879,"onions":24444,"froze":10619,"sundance":20140,"ٹ":1301,"skies":15717,"thence":23166,"cod":19429,"drawings":9254,"史":1790,"whales":17967,"privacy":9394,"##rites":28884,"[unused378]":383,"requesting":17942,"plague":11629,"worry":4737,"subsequently":3525,"##ax":8528,"##oma":9626,"climatic":27301,"smiling":5629,"rough":5931,"finely":22126,"ot":27178,"ornate":18099,"jakob":19108,"##eber":22669,"jericho":17309,"##ル":30259,"maharaja":21609,"championed":28683,"##ogical":20734,"pantry":27796,"opportunities":6695,"pebbles":28962,"thorn":16337,"1659":28288,"siegfried":25948,"dignitaries":27960,"ᄅ":1458,"##dicate":16467,"boutique":24611,"circulating":22458,"blonde":9081,"inhibitors":25456,"##iano":15668,"retaliation":18695,"achieved":4719,"trace":7637,"portico":23104,"lower":2896,"cousin":5542,"[unused355]":360,"northumberland":16205,"##wc":16526,"masonry":18103,"blacks":10823,"persuade":13984,"hedge":17834,"##ی":24830,"bankers":25375,"harrisburg":24569,"competes":14190,"པ":1430,"repertoire":13646,"##yoshi":19196,"erica":19295,"hornet":26795,"din":11586,"°c":6362,"confidence":7023,"occupations":23374,"textiles":18762,"proxy":24540,"rude":12726,"upside":14961,"locke":18343,"[unused535]":540,"##writing":18560,"outer":6058,"##sable":19150,"connected":4198,"mahogany":23867,"##yde":18124,"jug":26536,"parkinson":20310,"connects":8539,"fries":22201,"##iography":26535,"ascended":19644,"crater":11351,"sixteenth":14683,"chart":3673,"##scent":27654,"kit":8934,"benedict":12122,"notoriety":23215,"arsenal":9433,"##士":30333,"encouragement":15846,"sequel":8297,"1866":7647,"1708":27337,"##oche":23555,"vilnius":20513,"##fall":13976,"ˡ":1151,"contradictory":27894,"inclined":13050,"##س":29824,"lined":7732,"sloop":24786,"saying":3038,"assault":6101,"ammunition":9290,"##rce":19170,"distribution":4353,"knee":6181,"[unused982]":987,"danger":5473,"method":4118,"you":2017,"abc":5925,"timber":7227,"blown":10676,"##idium":28742,"smile":2868,"gallon":25234,"67":6163,"##華":30468,"accompany":12673,"vents":28287,"armored":10612,"##bang":25153,"##kam":27052,"thirds":12263,"institution":5145,"##ᅢ":30007,"warwick":13283,"strings":7817,"##খ":29890,"ɛ":1115,"remind":10825,"swamp":11963,"conversations":11450,"##nne":10087,"robin":5863,"achieve":6162,"proven":10003,"represent":5050,"evolution":6622,"muted":22124,"fluorescent":22184,"fiat":18550,"stretching":10917,"##roup":22107,"fifth":3587,"[unused428]":433,"[unused547]":552,"happening":6230,"##ao":7113,"##mur":20136,"duchess":11017,"urdu":12454,"give":2507,"fontana":27182,"critic":6232,"1799":13839,"sticking":13423,"##lot":10994,"ribbon":10557,"serb":20180,"participate":5589,"expense":10961,"flowers":4870,"##ₙ":19110,"sharply":9249,"##tee":17389,"commuter":14334,"##less":3238,"washington":2899,"spacecraft":12076,"drops":9010,"centimeters":18119,"accuse":26960,"კ":1446,"curated":17940,"mischievous":25723,"darling":9548,"taught":4036,"##uj":23049,"subscription":15002,"union":2586,"⁸":1542,"emphasize":17902,"law":2375,"##ni":3490,"##phate":24556,"beyonce":20773,"##umber":29440,"mattered":13836,"charters":23010,"##ndo":15482,"mixing":6809,"##xie":16898,"turk":22883,"font":15489,"ュ":1729,"##れ":30214,"##bry":25731,"companion":7452,"copies":4809,"afterwards":5728,"##raya":29539,"flushing":23519,"juliana":24157,"overwhelmingly":24783,"##pment":24073,"pune":16920,"fra":25312,"##dak":23597,"n":1050,"melville":20154,"caste":14542,"incomes":29373,"rushed":6760,"guerra":24698,"[unused71]":72,"[unused115]":120,"irs":25760,"hyun":21108,"[unused69]":70,"doherty":23798,"wardrobe":17828,"wasn":2347,"kidnap":22590,"illumination":21203,"iroquois":23015,"з":1187,"flores":17343,"as":2004,"baseline":26163,"fungi":15289,"dolls":14421,"frances":10360,"yves":19687,"168":16923,"seats":4272,"press":2811,"irina":25404,"ceramic":14692,"bite":6805,"thereof":21739,"hates":16424,"periods":6993,"堂":1805,"nordic":13649,"weep":27874,"perfect":3819,"theoretical":9373,"stand":3233,"書":1871,"seventy":10920,"steaming":19986,"laurel":11893,"##ᄎ":30001,"kahn":19361,"##gra":17643,"cis":20199,"loretta":28493,"##kal":12902,"327":28469,"ᅢ":1471,"think":2228,"fox":4419,"accessory":25339,"1016":28707,"witnesses":9390,"ate":8823,"beg":11693,"sunrise":13932,"nectar":24816,"ragged":14202,"##স":29912,"##dents":28986,"following":2206,"lavish":22689,"社":1924,"##gum":22850,"dealers":16743,"motors":9693,"х":1200,"##ws":9333,"diversity":8906,"consultants":22283,"affiliates":18460,"wednesday":9317,"angela":10413,"abolished":8961,"biscuits":27529,"[unused58]":59,"##schen":23796,"according":2429,"gamer":27911,"slack":19840,"maintenance":6032,"365":19342,"basil":14732,"oxide":15772,"і":1213,"cummings":20750,"dl":21469,"rte":20375,"eastwood":24201,"amazon":9733,"controller":11486,"[unused170]":175,"##eck":11012,"nutritional":28268,"dramatically":12099,"unveiled":11521,"earls":27371,"sting":12072,"routes":5847,"classification":5579,"690":28066,"lives":3268,"delayed":8394,"mild":10256,"begun":5625,"1612":29186,"leary":22986,"universite":22176,"glove":15913,"fergus":21023,"sport":4368,"[unused451]":456,"##ech":15937,"1628":28627,"slowed":9784,"collecting":9334,"[unused359]":364,"pattern":5418,"readers":8141,"iain":24486,"experiences":6322,"fia":19807,"1611":28769,"mutiny":19306,"fraser":9443,"branding":16140,"belfast":10330,"20s":27074,"wesleyan":19858,"articles":4790,"unbroken":29505,"rpg":22531,"neutral":8699,"wounded":5303,"multiplication":24856,"##boy":11097,"iv":4921,"campaigns":8008,"##ayo":28852,"loosened":22456,"##gating":16961,"football":2374,"variation":8386,"idaho":9795,"colorful":14231,"sinclair":11881,"civilization":10585,"complaint":12087,"abstracts":29474,"metro":6005,"[unused400]":405,"nfc":22309,"extinction":14446,"schumann":29448,"##icient":20132,"helen":6330,"toes":10393,"manifestation":24491,"norma":20692,"##eil":24359,"daytona":18226,"moonlight":11986,"extracts":27059,"moving":3048,"gabrielle":16988,"issuing":15089,"eliza":13234,"##ographer":26145,"battle":2645,"##mine":11233,"##ᵤ":30044,"640":19714,"##balls":18510,"boosted":28043,"across":2408,"sikh":17246,"##cous":27199,"atomic":9593,"sidewalks":28386,"roxy":23682,"swings":18755,"iii":3523,"rockwell":25235,"capitalism":16498,"1905":5497,"133":14506,"seized":8243,"rematch":18229,"tensed":15225,"kane":8472,"ζ":1160,"##au":4887,"forcing":6932,"tatar":29241,"iraqi":8956,"valle":20171,"192":17613,"wimbledon":13411,"completes":28123,"[unused41]":42,"marvel":8348,"explicitly":12045,"doorbell":25422,"blows":13783,"crusaders":18831,"freezing":12809,"##oki":23212,"groom":18087,"conversely":18868,"minimal":10124,"preaching":17979,"yearbook":24803,"travis":10001,"tenderly":26596,"##per":4842,"##wang":16600,"[unused319]":324,"##rada":28510,"troll":18792,"jar":15723,"libyan":19232,"town":2237,"[unused62]":63,"belonged":6272,"[unused316]":321,"tools":5906,"empirical":17537,"##་":29960,"barrio":25676,"##pol":18155,"lane":4644,"bars":6963,"##aby":21275,"dario":26800,"gasps":23813,"keyboard":9019,"lineman":24062,"sally":8836,"cowan":25752,"distract":15886,"##dai":21351,"village":2352,"entertain":20432,"melanie":13286,"compose":17202,"gum":16031,"percentage":7017,"199":20713,"test":3231,"weaver":14077,"baroness":21479,"cooperative":10791,"frigates":22833,"vince":12159,"traditional":3151,"gingerly":26961,"passed":2979,"##amine":19915,"okinawa":15052,"rotating":13618,"crocodile":21843,"rumored":22710,"cape":4880,"retail":7027,"[unused229]":234,"detroit":5626,"flaw":28450,"chopin":25479,"##oper":25918,"near":2379,"militant":16830,"cited":6563,"ravine":23188,"obey":15470,"continental":6803,"##ile":9463,"thankful":18836,"##caster":25490,"annapolis":24889,"tens":15295,"homeless":11573,"70s":17549,"士":1807,"josef":12947,"warning":5432,"##ung":5575,"guineas":22385,"souza":26598,"gonzaga":26840,"breakout":25129,"fuck":6616,"[unused964]":969,"cubic":11919,"cyclist":14199,"tentacles":24719,"fray":25975,"monroe":9747,"remade":26943,"サ":1705,"##onic":12356,"landau":28570,"satisfactory":23045,"bulldogs":15120,"lauderdale":23520,"drew":3881,"horrors":22812,"dale":8512,"damon":11317,"##ez":9351,"airbus":20901,"##hony":27629,"¥":1071,"undertaking":18457,"counterpart":13637,"dorsey":27332,"2004":2432,"[unused681]":686,"##pro":21572,"longitudinal":20134,"input":7953,"demands":7670,"household":4398,"aces":20232,"##վ":29782,"engravings":28611,"##xt":18413,"quote":14686,"##jad":27875,"##rence":24413,"anders":15387,"hellenistic":27464,"inorganic":28256,"##pet":22327,"138":15028,"mic":23025,"##ehan":24660,"pleas":22512,"peyton":17931,"housekeeper":22583,"deepened":20183,"軍":1955,"cretaceous":18122,"commando":15054,"intern":25204,"silesia":21872,"polo":11037,"##mers":16862,"พ":1414,"disdain":25134,"horst":28565,"mo":9587,"crawley":28854,"spearheaded":27721,"typed":21189,"##27":22907,"symmetry":14991,"panthers":12915,"laurence":10883,"scents":29254,"fear":3571,"##ndt":26379,"##也":30276,"[unused592]":597,"##86":20842,"##onte":28040,"madagascar":11934,"bamboo":15216,"vocalists":27478,"seminars":17239,"alberta":7649,"admit":6449,"nouveau":25272,"ser":14262,"oppose":15391,"sabha":11200,"kara":13173,"show":2265,"##tosis":25950,"pearce":19560,"##aid":14326,"[unused653]":658,"complaining":17949,"square":2675,"economist":11708,"speeches":13867,"misty":15167,"##tery":20902,"distracting":25012,"eat":4521,"##arte":24847,"mount":4057,"instructors":19922,"decides":7288,"pleasing":24820,"mfa":26913,"springs":6076,"reggie":17963,"commentator":12268,"reward":10377,"masters":5972,"vocals":2955,"##ttered":14795,"##cent":13013,"hooker":17074,"volunteers":7314,"eduard":20424,"interventions":19388,"##rned":21119,"immediately":3202,"dia":22939,"mina":19808,"nina":9401,"friedrich":8896,"tangle":24453,"emerging":8361,"##°":7737,"cheated":22673,"rolling":5291,"viking":12886,"##rium":18802,"impose":17607,"[unused466]":471,"##mable":24088,"##w":2860,"##ट":29856,"##point":8400,"ɬ":1121,"falling":4634,"excerpt":28142,"quickly":2855,"pga":14198,"pump":10216,"##liest":21292,"boyer":23456,"ked":16135,"宇":1819,"atkinson":18646,"##tus":5809,"demonstrates":16691,"##iter":21646,"fiesta":24050,"violet":8766,"estrada":26482,"emir":23434,"usaf":18531,"##aldi":24657,"childhood":5593,"frequented":24832,"747":25374,"1200":14840,"##¼":29664,"journeys":19147,"##gley":22971,"amman":25703,"##bound":15494,"winds":7266,"chilly":24222,"arrival":5508,"kings":5465,"[unused983]":988,"maj":16686,"taxa":23726,"feel":2514,"cochran":28506,"##ウ":30222,"##sten":16173,"##rization":26910,"dwarf":11229,"ھ":1307,"combine":11506,"##abia":29039,"bc":4647,"coordinated":14206,"austen":24177,"cornerstone":23354,"newspapers":6399,"caliph":22733,"muttered":6250,"へ":1675,"ecumenical":23540,"denomination":18683,"louvre":25110,"氏":1891,"speedway":10688,"outrageous":25506,"##band":12733,"##ӏ":29765,"officials":4584,"¶":1086,"nuclear":4517,"taxis":25964,"stallion":19122,"wally":18202,"[unused798]":803,"snowy":20981,"margot":29210,"stunning":14726,"##ocks":25384,"##endra":19524,"endeavor":23855,"parramatta":22820,"property":3200,"hidalgo":24715,"prasad":17476,"##ost":14122,"##45":19961,"nr":17212,"##ju":9103,"ambulance":10771,"breakthrough":12687,"masonic":21152,"[unused364]":369,"matilda":17981,"##em":6633,"get":2131,"##cis":22987,"[unused14]":15,"haunt":24542,"choosing":10549,"bounds":19202,"ineligible":22023,"maybe":2672,"otago":21831,"requirements":5918,"yamaha":24031,"fulfill":13883,"##、":30161,"grenades":21914,"[unused317]":322,"conscience":13454,"mainly":3701,"bureau":4879,"samson":18375,"lionel":14377,"innate":25605,"blushing":25771,"代":1760,"revolutionaries":24517,"flicked":12777,"injuries":6441,"venetian":15510,"constituencies":13315,"registered":5068,"pieter":23759,"1855":8492,"ش":1283,"stitch":26035,"desktop":15363,"diablo":28841,"rests":16626,"##ured":12165,"stripping":23987,"analysts":18288,"purchased":4156,"1979":3245,"southeast":4643,"ท":1412,"##lge":28875,"rpm":11575,"fundraising":15524,"gleaming":18242,"influencing":25870,"balkan":17581,"noah":7240,"##held":24850,"handle":5047,"oyster":21480,"astonished":22741,"activation":13791,"##tagram":23091,"entirety":15700,"arrested":4727,"filipino":10275,"kali":19924,"crept":13147,"revolutions":25239,"idle":18373,"cares":14977,"withdrawing":21779,"mccain":19186,"18":2324,"rep":16360,"##rland":18324,"reasons":4436,"swallows":26436,"##ivo":20984,"##ivision":24607,"abusive":20676,"prematurely":28179,"departmental":28912,"slower":12430,"leave":2681,"hillsborough":29330,"##ف":29833,"bronx":14487,"rms":29311,"treasury":9837,"backed":6153,"stabilized":27697,"intriguing":23824,"isaac":7527,"genetic":7403,"sheath":21867,"growth":3930,"andersson":28643,"helm":16254,"startup":22752,"jana":23341,"devastated":13879,"dolphins":13600,"trams":19216,"##lais":28704,"unsuccessful":7736,"gathering":7215,"infinite":10709,"##ages":13923,"bowler":14999,"drift":11852,"falls":4212,"##roving":22046,"delivering":12771,"deprivation":29516,"tallinn":21169,"options":7047,"arranging":19018,"cheung":22632,"[unused307]":312,"scope":9531,"##པ":29966,"send":4604,"addict":26855,"explore":8849,"alterations":16705,"sirius":23466,"neville":14871,"regaining":28657,"chaplin":23331,"##ort":11589,"140":8574,"io":22834,"tropical":5133,"heaven":6014,"made":2081,"##bank":9299,"[unused507]":512,"therapeutic":17261,"job":3105,"cord":11601,"restaurants":7884,"य":1332,"##odies":27391,"profitable":15282,"miners":11257,"discount":19575,"##wear":16689,"beverages":21705,"cathy":18305,"pale":5122,"consonants":19694,"biographical":16747,"bournemouth":22882,"furthermore":7297,"[unused28]":29,"cbe":15852,"##san":8791,"cores":25562,"gear":6718,"330":14210,"dozen":6474,"airship":27636,"shortest":20047,"chuck":8057,"##encies":15266,"##会":30289,"initiation":17890,"hailey":21664,"coincidentally":27542,"terra":14403,"perch":21836,"lucifer":24184,"exams":13869,"fabian":21174,"murderers":28882,"##cci":14693,"albanian":9408,"belong":7141,"wa":11333,"personnel":5073,"stricken":16654,"declines":26451,"configuration":9563,"sensation":8742,"practical":6742,"cm":4642,"rifles":9494,"boyle":16694,"niccolo":27033,"ant":14405,"տ":1236,"##ground":16365,"##cate":16280,"wai":23701,"forever":5091,"ashland":24346,"rapids":12775,"tully":25724,"nodding":11863,"spectacle":21177,"orphanage":18504,"ன":1387,"viola":10482,"##vos":19862,"carleton":22273,"tomas":12675,"motive":15793,"asphalt":16295,"orders":4449,"onwards":9921,"##breakers":27623,"amateurs":24361,"##ciency":29125,"aramaic":28934,"genocide":14052,"holiness":27692,"##erton":20995,"grimace":25898,"yellow":3756,"swim":9880,"jace":10352,"mabel":19486,"る":1687,"##vern":23062,"suspense":23873,"agricultural":4910,"[unused129]":134,"##vet":19510,"##₆":30082,"##wheel":22920,"weekend":5353,"royal":2548,"dunedin":22020,"digging":10443,"cheerleading":25721,"custody":9968,"##rich":13149,"administration":3447,"commandos":25144,"lacked":10858,"##ˣ":29718,"introduced":3107,"babylonian":26990,"hoax":28520,"prints":11204,"highest":3284,"result":2765,"[unused574]":579,"##xes":20156,"wr":23277,"##幸":30367,"##tp":25856,"scars":13521,"terminates":28790,"benign":28378,"golden":3585,"ursula":20449,"##ciation":23247,"unix":19998,"archibald":15917,"winston":10180,"##laus":28128,"intersections":26540,"india":2634,"conical":24750,"##orio":27416,"aground":29406,"##kla":26086,"harshly":21052,"##athlon":17563,"##istle":24242,"larkin":25570,"stream":5460,"sofa":10682,"nipples":28124,"##dilly":28832,"disperse":28736,"restarted":25606,"vp":21210,"##ス":30233,"lethal":12765,"zheng":20985,"adorable":23677,"liter":23675,"defined":4225,"countered":17970,"kris":19031,"##×":26306,"##dc":16409,"metz":24424,"bottoms":24196,"phantom":11588,"abuses":21078,"1987":3055,"##endez":28787,"##eros":27360,"observers":14009,"##hita":23935,"xl":28712,"124":13412,"writes":7009,"shout":11245,"##lub":27959,"milky":21582,"հ":1228,"instant":7107,"proposed":3818,"mendoza":18021,"comments":7928,"wasting":18313,"354":27878,"amendment":7450,"236":23593,"toe":11756,"assessments":20794,"supporter":10129,"hepburn":22004,"descending":15127,"##felt":26675,"embodied":25405,"direct":3622,"limousine":28012,"##khan":26370,"bharatiya":24243,"clara":10254,"cleopatra":22003,"##coll":26895,"told":2409,"maternal":11062,"onion":20949,"toy":9121,"235":17825,"actually":2941,"##nation":9323,"vietnamese":9101,"##hen":10222,"significantly":6022,"pine":7222,"heating":10808,"yorker":19095,"ironic":19313,"brightly":14224,"slaughtered":23044,"##dies":18389,"normal":3671,"peters":12420,"##year":29100,"thick":4317,"poised":22303,"derives":12153,"guardian":6697,"investigating":11538,"despair":13905,"begin":4088,"mafia":13897,"##gne":10177,"masses":11678,"waterfront":16317,"handful":9210,"confuse":28679,"sportsman":27168,"##橋":30411,"they":2027,"incidence":18949,"belonging":7495,"limp":14401,"amulet":25087,"##most":11800,"loud":5189,"aviv":12724,"##ى":29837,"eleven":5408,"##oted":27428,"[unused464]":469,"drop":4530,"stepmother":26959,"stella":11894,"[unused565]":570,"castles":15618,"polk":20819,"monarch":11590,"defending":6984,"mane":23055,"##uss":17854,"oblique":20658,"1992":2826,"♥":1625,"##llie":23697,"[unused251]":256,"₀":1547,"pack":5308,"premiership":11264,"overnight":11585,"##ati":10450,"organized":4114,"anglo":7819,"di":4487,"xiii":15031,"heaving":23907,"dependent":7790,"moral":7191,"laureate":17656,"を":1690,"hart":7530,"zoology":22405,"consistency":18700,"&":1004,"iq":26264,"##_":29638,"dual":7037,"##lino":25226,"##sta":9153,"hopeless":20625,"comedy":4038,"hugo":9395,"socially":14286,"ी":1342,"##cel":29109,"⟨":1629,"entrepreneurship":20213,"alderman":18977,"globally":16452,"lsu":21849,"flynn":13259,"reactor":13308,"##ock":7432,"prominent":4069,"butch":17520,"opt":23569,"##ग":29853,"workers":3667,"dc":5887,"[unused458]":463,"stain":21101,"##blood":26682,"maintaining":8498,"[unused7]":8,"stronger":6428,"seamen":28671,"responds":16412,"enjoys":15646,"##aco":22684,"##og":8649,"chun":20979,"tracing":16907,"ν":1167,"dismiss":19776,"fm":4718,"accommodation":11366,"stephen":4459,"volleyball":7454,"jasper":14791,"diner":15736,"lb":6053,"prussian":10734,"dispersal":27602,"9":1023,"international":2248,"colonial":5336,"awake":8300,"gifford":29360,"erasmus":26809,"settings":10906,"among":2426,"##aux":13754,"j":1046,"theory":3399,"sarcasm":20954,"march":2233,"480":17295,"draining":19689,"affecting":12473,"grasses":21620,"[unused860]":865,"hodge":23148,"##mba":11201,"celestial":17617,"tossing":15021,"hanging":5689,"##nare":26148,"##bing":10472,"slow":4030,"##hall":9892,"samurai":16352,"hacking":23707,"kills":8563,"##女":30341,"advocates":13010,"loyalty":9721,"ᄐ":1467,"vogel":27063,"photo":6302,"##tangled":27898,"friar":25287,"pace":6393,"##ש":29812,"##jou":23099,"scratched":15047,"demonstrated":7645,"is":2003,"mars":7733,"jerk":12181,"contested":7259,"##rke":25074,"huskies":29471,"specialising":23315,"##ns":3619,"lazarus":23623,"upstate":29530,"cliffs":13333,"special":2569,"1570":28881,"118":12963,"stable":6540,"ironically":18527,"hard":2524,"reconciliation":16088,"comprehension":26683,"lawson":14577,"laboratories":12030,"prospects":16746,"zipper":22082,"##uted":12926,"hong":4291,"alaska":7397,"##earing":27242,"make":2191,"##ག":29962,"panchayat":20079,"http":8299,"##八":30297,"parachute":13561,"##gart":27378,"treasures":17605,"semitic":20604,"choirs":24743,"tidal":15065,"superiority":19113,"owned":3079,"blair":10503,"242":22431,"flashbacks":28945,"grace":4519,"##vances":26711,"##deck":26547,"grown":4961,"pittsburgh":6278,"finer":26954,"##pore":26691,"archeological":23005,"influence":3747,"block":3796,"pasture":20787,"##iating":15370,"pills":15345,"##66":28756,"literacy":8433,"minsk":20790,"pandora":19066,"##ize":4697,"danish":5695,"dumped":14019,"thirteenth":14725,"##eh":11106,"location":3295,"ventura":21151,"[unused991]":996,"##こ":30181,"governmental":10605,"konstantin":23989,"peaked":6601,"##gas":12617,"flights":7599,"winged":14462,"creations":20677,"##rys":24769,"caretaker":17600,"mandarin":15831,"booking":21725,"##ress":8303,"emitted":22627,"ira":11209,"##ryl":23320,"advancement":12607,"icy":13580,"pixels":27725,"uta":28981,"erin":11781,"##nated":23854,"##gram":13113,"villages":4731,"306":24622,"##/":29626,"sophia":9665,"tingle":25792,"destination":7688,"pepsi":27237,"extent":6698,"##houses":15666,"annie":8194,"newfound":27608,"241":22343,"taxpayer":26980,"[unused483]":488,"inevitably":21268,"macon":20025,"bingham":24579,"winkler":20472,"behaviour":9164,"[unused267]":272,"##auer":21126,"1731":28446,"units":3197,"middle":2690,"amsterdam":7598,"garrison":8427,"replacements":23936,"##hampton":21946,"effect":3466,"harlan":24276,"happier":19366,"diagonal":19754,"ceo":5766,"leonardo":14720,"wraps":19735,"##tle":9286,"mallory":20468,"arrangements":7565,"cheers":21250,"##॥":29881,"##llin":21202,"regulate":15176,"erie":13374,"comprehend":22346,"##tics":14606,"macleod":23075,"partisan":14254,"##ལ":29971,"anchored":14453,"門":1968,"sv":17917,"corrupt":13593,"greer":25939,"##hett":28499,"ع":1288,"investing":19920,"102":9402,"markham":26197,"火":1906,"frankish":26165,"[unused489]":494,"[unused362]":367,"##st":3367,"mussolini":22554,"shaking":5513,"resident":6319,"clock":5119,"big":2502,"cerebral":18439,"guarded":13802,"[unused710]":715,"##sar":10286,"rein":27788,"orchestras":19505,"avenues":20859,"woodstock":21028,"lifelong":13506,"ր":1237,"properly":7919,"someone":2619,"subway":10798,"©":1075,"jurisdiction":7360,"wren":16255,"monkey":10608,"##pressing":24128,"computation":22334,"examining":12843,"fatal":10611,"[unused942]":947,"bowed":11489,"hk":22563,"arthritis":27641,"mushroom":18565,"風":1977,"60":3438,"##liffe":27931,"juniper":29425,"キ":1701,"levine":17780,"gorman":25693,"sienna":20210,"##vsky":15904,"stirring":18385,"guardians":14240,"##59":28154,"##jana":18803,"lotus":13030,"residue":21755,"caitlin":27555,"commit":10797,"palazzo":18482,"endemic":7320,"##vision":17084,"twitter":10474,"stripe":18247,"inhibitor":24054,"fossil":10725,"zip":14101,"simplest":21304,"endowed":19038,"mall":6670,"categorized":20427,"volvo":21074,"roster":9238,"manufactured":7609,"mask":7308,"health":2740,"commands":10954,"nicolas":9473,"account":4070,"##e":2063,"memorable":13432,"ghent":24202,"repetition":23318,"distributions":20611,"variant":8349,"##б":29740,"escorts":24877,"disturbed":12491,"##д":29742,"chargers":18649,"representative":4387,"1916":4947,"marina":9985,"owen":7291,"easing":24070,"throbbed":27714,"violent":6355,"descended":9287,"excuses":21917,"##vic":7903,"tracker":27080,"ա":1219,"##iki":17471,"pitches":19299,"manfred":19149,"genealogy":26684,"else":2842,"##rine":11467,"engineer":3992,"##ह":29875,"garfield":20170,"monsieur":21380,"township":3545,"nurse":6821,"mathew":25436,"boone":15033,"trait":18275,"pony":15606,"cinnamon":21229,"exponential":27258,"capped":13880,"reduce":5547,"heaved":19970,"##zine":21254,"fantasies":21233,"confronts":17628,"pathetic":17203,"stokes":18716,"fifteen":5417,"subsidy":28768,"exploitation":14427,"dunes":17746,"##reus":23446,"clasped":16763,"clayton":11811,"email":10373,"flexed":24244,"##უ":29990,"messy":18307,"tallest":13747,"chevrolet":14724,"domain":5884,"##tm":21246,"olga":15585,"##vani":27760,"harassed":28186,"##zing":6774,"##cola":26289,"have":2031,"lowry":27281,"##hang":18003,"##rier":16252,"lizards":23898,"##ᵒ":30039,"yearly":12142,"manner":5450,"hua":23064,"row":5216,"##cave":27454,"##uh":27225,"##タ":30235,"recaptured":23838,"agreeing":16191,"##lining":16992,"hailed":16586,"ankles":15392,"americana":25988,"fiscal":10807,"##valent":24879,"personalities":12857,"eclectic":20551,"parade":7700,"##fen":18940,"[unused579]":584,"[unused890]":895,"guide":5009,"##berto":21201,"24th":13386,"engagement":8147,"[unused504]":509,"academics":15032,"versus":6431,"mapping":12375,"fits":16142,"registry":15584,"da":4830,"1969":3440,"suspects":13172,"gradually":6360,"##fra":27843,"##bert":8296,"##uch":10875,"streamed":18498,"etched":20286,"compliance":12646,"roundabout":22831,"tripoli":21841,"sinn":26403,"conferred":15186,"[unused506]":511,"different":2367,"percy":11312,"course":2607,"##‡":30062,"##virus":23350,"##sation":26652,"sarcastic":22473,"var":13075,"silenced":25030,"glint":25263,"upbeat":27999,"疒":1913,"today":2651,"altar":9216,"[unused517]":522,"section":2930,"##izzly":29266,"fir":21554,"bulldog":28628,"troopers":26246,"suspect":8343,"##den":4181,"##ones":21821,"lounge":11549,"##rone":20793,"ᵣ":1508,"immigrant":11560,"francaise":18427,"enroll":25612,"talmud":24380,"merging":16468,"indifferent":24436,"##enary":24553,"137":14989,"psychiatry":18420,"##}":29642,"derek":7256,"忠":1852,"apples":18108,"control":2491,"fragmentation":28424,"tasting":18767,"satisfy":13225,"bernard":6795,"waving":12015,"##24":18827,"[unused23]":24,"determination":9128,"story":2466,"communism":15523,"lexington":14521,"sergey":22703,"##ept":23606,"##dian":11692,"provost":18523,"##baldi":28807,"##疒":30439,"libertarian":19297,"joanne":23459,"counsel":9517,"bass":3321,"chooses":15867,"yin":18208,"hysterical":25614,"taiwan":6629,"##rn":6826,"buccaneers":21629,"##nbc":28957,"歌":1886,"[unused612]":617,"##burn":8022,"[unused723]":728,"postgraduate":15438,"lettering":25782,"instability":18549,"．":1991,"男":1912,"##berry":9766,"##ssee":29522,"etat":17997,"##lary":28221,"producer":3135,"midfield":23071,"char":25869,"trips":9109,"hampton":11615,"uncovered":14486,"##lland":26087,"harlem":14864,"##yya":19903,"score":3556,"marker":12115,"manchu":26650,"script":5896,"alarms":29034,"halted":12705,"kamen":22099,"katz":20729,"##rga":28921,"1":1015,"calcutta":13419,"hale":13084,"catches":11269,"##laze":24472,"valiant":24329,"workshop":8395,"##kti":22462,"drinks":8974,"commercial":3293,"monks":9978,"reconstruction":8735,"frontman":21597,"yeomanry":26883,"feather":15550,"##iente":25099,"arrangement":6512,"343":27810,"darted":14051,"050":28714,"彳":1845,"presbyterian":10133,"rebellion":7417,"mumbai":8955,"bishopric":20664,"bradshaw":23762,"helmet":10412,"tourists":9045,"gale":14554,"ল":1373,"bartlett":20081,"precursor":14988,"##ysis":20960,"ᅵ":1483,"simple":3722,"dominating":21949,"studies":2913,"##itia":29050,"rodriguez":9172,"1821":11723,"fence":8638,"top":2327,"lesbian":11690,"spells":11750,"mole":16709,"eligibility":11395,"hurried":9520,"oasis":18128,"destruction":6215,"circa":12800,"quartermaster":24688,"pink":5061,"cornerback":26857,"##tell":23567,"sparked":13977,"wong":11789,"amend":27950,"##itaire":29422,"did":2106,"avery":12140,"petit":17268,"karate":16894,"has":2038,"luigi":15153,"modifying":29226,"##ials":26340,"seine":16470,"supposedly":10743,"1771":20708,"##ed":2098,"rifle":5883,"uc":15384,"du":4241,"derivation":29280,"##ʂ":29695,"margarita":24570,"chevalier":22019,"magna":20201,"sing":6170,"decimal":26066,"[unused769]":774,"##oco":24163,"unionist":17104,"drove":5225,"boulder":13264,"##rai":14995,"##ologist":8662,"ɣ":1117,"1710":23841,"periphery":23275,"fired":5045,"introduces":13999,"-":1011,"valley":3028,"recognizable":20123,"cardiovascular":22935,"bicycles":21066,"heavenly":16581,"readings":15324,"whitehall":28361,"ernie":14637,"votes":4494,"intensity":8015,"##tua":26302,"vii":8890,"hee":18235,"##保":30292,"favorably":27597,"domains":13100,"trainee":26758,"export":9167,"topped":9370,"election":2602,"malay":12605,"tailed":14578,"hacked":28719,"landfall":21042,"preceding":11003,"coldly":24745,"##nine":19105,"intervened":21116,"michigan":4174,"curling":11599,"scrape":26988,"mas":16137,"shriek":24795,"filmmaking":24466,"aroma":23958,"cabins":20321,"2":1016,"crawled":12425,"squash":18794,"oct":13323,"##iness":9961,"simplified":11038,"##oms":22225,"cannon":8854,"animator":25132,"ported":27650,"##p":2361,"seneca":21224,"1906":5518,"mineral":9754,"monsoon":19183,"pomerania":18631,"texture":14902,"crowns":24364,"piano":3682,"ს":1452,"##pal":12952,"routines":23964,"##ho":6806,"sy":25353,"japanese":2887,"##rest":28533,"burial":8940,"bunker":15742,"serbs":16757,"##rath":27362,"headmaster":16296,"gateway":11909,"federally":20892,"paste":19351,"uruguay":11724,"conceptual":17158,"guantanamo":23094,"ich":22564,"invitations":29492,"[unused125]":130,"bandit":25334,"maestro":25270,"mccartney":15320,"stuart":6990,"influential":6383,"cabaret":19685,"##そ":30186,"##bet":20915,"huntsville":28492,"##wi":9148,"contract":3206,"airfields":25278,"##hom":23393,"##ici":28775,"brands":9639,"bowen":16208,"olympia":17096,"hardened":15015,"[unused980]":985,"noelle":22336,"confinement":21551,"sales":4341,"matches":3503,"dam":5477,"marcia":22548,"protectorate":20394,"tc":22975,"virginity":26970,"mummy":22788,"employer":11194,"malaya":19979,"comical":29257,"##inated":15833,"princeton":9173,"particle":10811,"lock":5843,"##llus":20159,"##ulate":9869,"[unused487]":492,"##mute":26746,"##bution":29446,"##♠":30150,"drills":28308,"flip":11238,"hottest":20930,"sobbing":20040,"cow":11190,"realise":19148,"announcements":25674,"investigators":14766,"ग":1317,"leger":26523,"regatta":26848,"senses":9456,"ensuring":12725,"qin":19781,"prove":6011,"##ini":5498,"explained":4541,"educated":5161,"havilland":23994,"contrary":10043,"request":5227,"##iculate":24153,"trusted":9480,"##ywood":26985,"defect":21262,"apt":26794,"э":1208,"ranger":11505,"shri":14880,"fails":11896,"##mmy":18879,"priorities":18402,"casablanca":24592,"fragrance":24980,"pu":16405,"anwar":28372,"primera":14837,"[unused87]":88,"##venting":26703,"##gingly":28392,"munoz":23685,"aloud":12575,"aw":22091,"1600":14883,"##fk":24316,"##bridge":6374,"admiration":17005,"625":22810,"®":1079,"eroded":23300,"turbo":15386,"nun":16634,"[unused414]":419,"turks":12896,"criticized":6367,"ɕ":1113,"provoke":27895,"##weight":11179,"doyle":11294,"tool":6994,"barker":12852,"mouths":15076,"##uts":16446,"gertrude":18734,"safety":3808,"##guchi":16918,"92":6227,"relational":28771,"η":1161,"##eson":21421,"alright":10303,"orbital":13943,"angie":14835,"proceeding":18207,"bundles":26825,"##tze":23102,"guiding":14669,"leap":11679,"secular":10644,"cause":3426,"##⊆":30138,"assists":8456,"honest":7481,"დ":1441,"flour":13724,"##sfield":15951,"##21":17465,"dominated":6817,"rugby":4043,"noteworthy":19144,"messing":22308,"≥":1609,"##90":21057,"##orno":26295,"yugoslav":12292,"intent":7848,"feminist":10469,"labor":4450,"abnormal":19470,"campeonato":17675,"tasked":13487,"inn":7601,"1897":6347,"continues":4247,"pulled":2766,"ら":1685,"axe":12946,"plc":15492,"punches":17957,"humor":8562,"slalom":19617,"commenting":15591,"[unused981]":986,"pistol":8779,"##get":18150,"prototype":8773,"roderick":28326,"##գ":29768,"lac":18749,"sarajevo":18354,"##sell":23836,"##rred":20529,"josie":15293,"baccalaureate":27802,"##olio":29401,"conscription":26329,"##wives":23744,"russian":2845,"solely":9578,"shaping":20300,"personality":6180,"morphological":24012,"alam":26234,"maguire":26196,"[unused189]":194,"fiercely":16265,"term":2744,"[MASK]":103,"₩":1573,"suffer":9015,"terrorism":10130,"magazines":7298,"concord":16557,"approval":6226,"ف":1291,"307":24559,"slightest":15989,"demonstrate":10580,"likened":28834,"dunlop":27458,"logged":26618,"bluegrass":21286,"alexander":3656,"⁴":1538,"recovery":7233,"pensions":22024,"##in":2378,"1718":26995,"##五":30279,"grunt":20696,"##vik":13309,"sided":11536,"imposed":9770,"##nova":13455,"[unused345]":350,"fifa":5713,"pit":6770,"screwed":14180,"mon":12256,"##ra":2527,"##∗":30125,"openly":10132,"##ほ":30202,"participates":17257,"barnes":9957,"##hm":14227,"##iated":15070,"occupy":11494,"heroism":27117,"##ters":7747,"mccall":25790,"pistons":24399,"scranton":26123,"material":3430,"##hee":21030,"brood":25565,"texts":6981,"ios":16380,"liberals":13350,"replies":14054,"consular":27326,"[unused962]":967,"け":1654,"hereditary":14800,"vane":23334,"lal":21348,"halves":23672,"interpreting":25455,"##isance":28138,"turnout":15512,"mph":5601,"44":4008,"##acle":18630,"##ibility":13464,"##shin":17426,"下":1743,"towing":28379,"seasonal":12348,"[unused685]":690,"##ingen":15542,"coordinates":12093,"accidentally":9554,"##pf":14376,"##adia":25205,"insurgents":20541,"koch":15259,"##ciful":26336,"[unused227]":232,"weave":25308,"competition":2971,"thrill":16959,"##»":29663,"hz":22100,"##モ":30253,"[unused148]":153,"reduced":4359,"501":16202,"duties":5704,"abilities":7590,"##mium":27759,"##grin":24860,"[unused818]":823,"ɡ":1116,"ace":9078,"1846":9244,"1951":4131,"timely":23259,"greenwood":16827,"ρ":1171,"photograph":9982,"cambridge":4729,"germanic":15139,"equivalence":27841,"cautious":17145,"railway":2737,"raider":27826,"funding":4804,"nails":10063,"1876":7326,"2015":2325,"##ety":27405,"yours":6737,"depiction":15921,"た":1661,"[unused88]":89,"strand":11226,"renew":20687,"shreveport":23740,"##け":30180,"howard":4922,"holt":12621,"contents":8417,"outgoing":22011,"poster":13082,"proving":13946,"##bana":19445,"banded":25264,"utilities":16548,"midtown":27219,"##ψ":29738,"tuscany":23322,"zombie":11798,"seminal":20603,"intimately":29024,"bands":4996,"refers":5218,"bundesliga":14250,"##>":29631,"sign":3696,"recognition":5038,"reformer":24767,"貝":1952,"signalling":21919,"1632":28216,"##hat":12707,"tape":6823,"##ance":6651,"perpetual":18870,"tre":29461,"unsuccessfully":11551,"ahmedabad":27249,"brick":5318,"##atic":12070,"##oft":15794,"##due":20041,"topography":21535,"fulfilled":16829,"217":20335,"tchaikovsky":25900,"sofie":26359,"quinlan":28451,"loosen":29476,"bottled":26071,"root":7117,"realising":27504,"runoff":19550,"flare":17748,"twain":24421,"assets":7045,"jason":4463,"firm":3813,"##rar":19848,"misconduct":23337,"cracking":15729,"weak":5410,"##ement":13665,"silence":4223,"##ura":4648,"##tec":26557,"sincerity":23997,"シ":1706,"progressed":12506,"天":1811,"wicket":12937,"crafted":19275,"##nist":26942,"sung":7042,"##llins":26655,"5th":4833,"[unused933]":938,"zebra":29145,"bonded":20886,"gregg":18281,"[unused691]":696,"##64":21084,"hands":2398,"climate":4785,"deliver":8116,"⊕":1612,"plain":5810,"##ط":29828,"citrus":20418,"flee":10574,"[unused193]":198,"democratic":3537,"[unused49]":50,"safer":13726,"colonies":8355,"smiles":8451,"[unused201]":206,"##sing":7741,"##roud":21332,"distracted":11116,"##bed":8270,"##28":22407,"extreme":6034,"anya":21728,"truncated":25449,"zurich":10204,"wound":6357,"northwest":4514,"crossings":20975,"piston":16733,"salmon":11840,"arranged":5412,"diversified":24908,"##tops":25181,"roberts":7031,"##pher":27921,"hatch":11300,"steelers":15280,"smashwords":25151,"farewell":13407,"ta":11937,"##balance":26657,"##heimer":18826,"trident":26515,"array":9140,"##ъ":29755,"diana":8805,"siding":17326,"##ner":3678,"##ennial":22929,"##dar":7662,"##bber":29325,"privy":14452,"penis":19085,"lowest":7290,"marvelous":28851,"smelled":9557,"##tooth":19392,"ness":23384,"vehicles":4683,"bats":12236,"miriam":16925,"##区":30308,"##bau":27773,"oakland":9182,"greek":3306,"generating":11717,"hepatitis":28389,"nuremberg":19346,"bien":29316,"ufc":11966,"justification":19777,"montenegrin":24099,"achievements":10106,"##有":30399,"##otted":26174,"cheltenham":18763,"collateral":24172,"[unused594]":599,"##mania":27010,"##ners":16912,"scrapped":14553,"concluding":16228,"loved":3866,"decrees":28966,"1741":25280,"talent":5848,"hercules":15067,"##unciation":24101,"goat":13555,"muslims":7486,"vertex":19449,"hess":23484,"##rom":21716,"captures":19566,"butler":7055,"patrol":6477,"##boys":24916,"##med":7583,"siren":19558,"last":2197,"tracking":9651,"wight":20945,"lyon":10241,"##emy":26662,"sultan":7544,"premiere":6765,"steiner":21264,"morals":25288,"##foil":24323,"##sas":20939,"1872":7572,"##iation":18963,"district":2212,"discourse":15152,"252":22898,"hand":2192,"mary":2984,"trembled":14823,"ying":20879,"##ker":5484,"fought":4061,"ripe":22503,"foam":17952,"fey":23864,"protein":5250,"domestic":4968,"vladimir":8748,"somerset":9198,"necks":26082,"##tch":10649,"franciscan":19420,"sophisticated":12138,"##itzer":19253,"[unused74]":75,"irwin":17514,"executed":6472,"forerunner":23993,"insanity":19272,"limitations":12546,"landing":4899,"francesco":11400,"##tas":10230,"kilometer":20595,"rebound":27755,"adrian":7918,"bail":15358,"pumped":16486,"##治":30426,"dismay":20006,"##禾":30453,"cher":24188,"converge":28314,"##dened":24589,"1811":13086,"randolph":13031,"##elia":13902,"ᆸ":1488,"flinders":29120,"##mei":26432,"novak":19580,"exhibitions":8596,"puppet":13997,"families":2945,"easily":4089,"downloads":22956,"##★":30147,"thatcher":21127,"opted":12132,"##ith":8939,"##khand":25910,"farmers":6617,"##gang":24930,"returns":5651,"dispute":7593,"targeted":9416,"##ide":5178,"platoon":13799,"##ister":12911,"[unused119]":124,"stefan":8852,"##port":6442,"tract":12859,"amin":24432,"[unused336]":341,"lincolnshire":16628,"unknown":4242,"##gel":12439,"##sville":9337,"balancing":20120,"##copic":26461,"habit":10427,"remnants":11270,"marsh":9409,"rouge":12801,"##folding":21508,"overtime":12253,"bicycle":10165,"##rm":10867,"170":10894,"reproduction":14627,"thermal":9829,"justified":15123,"morgan":5253,"excuse":8016,"##won":19291,"parentheses":27393,"repertory":21099,"fraction":12884,"degradation":16627,"roach":20997,"##ι":18199,"prefecture":7498,"plaid":26488,"party":2283,"horde":21038,"liver":11290,"puerto":5984,"bosses":23029,"##eau":10207,"##arding":29154,"noodles":27130,"proponents":20401,"##lter":21928,"haute":18535,"ण":1322,"apostle":20121,"rows":10281,"##roller":26611,"singled":25369,"##rin":6657,"veteran":8003,"##ple":10814,"spaced":19835,"eugene":8207,"##hua":14691,"arrogance":24416,"1935":4437,"sanctuary":8493,"##ille":10484,"eduardo":14846,"fright":25966,"##therapy":20900,"rendered":10155,"cameroon":13841,"##ا":25573,"vichy":29177,"prevents":16263,"rescued":10148,"becca":22140,"populous":20151,"##col":25778,"time":2051,"handheld":27291,"procurement":21423,"##dry":21190,"##rily":11272,"##lars":28695,"1664":28485,"systematically":23087,"simpler":16325,"1862":6889,"distributed":5500,"dating":5306,"171":18225,"520":19611,"gloucestershire":15905,"weekday":16904,"happily":11361,"##icus":14239,"##ッ":30237,"apical":29197,"westfield":26584,"pregnancy":10032,"collapses":25938,"sail":9498,"disc":5860,"effects":3896,"slogan":14558,"nilsson":29376,"ley":25866,"billions":25501,"volatile":20606,"pinned":11807,"dew":24903,"sighted":19985,"wizards":16657,"kids":4268,"1888":6690,"[unused760]":765,"torches":24711,"[unused805]":810,"forced":3140,"squad":4686,"dependency":24394,"astor":25159,"##hab":25459,"lila":19286,"drury":25663,"ama":25933,"[unused904]":909,"dubbed":9188,"conditioning":14372,"##kow":24144,"pic":27263,"cardboard":19747,"##fast":24333,"rancho":18123,"tech":6627,"ལ":1435,"deny":9772,"macedonian":13037,"debra":28762,"waterfalls":24236,"cfl":18830,"bearings":21714,"269":25717,"sam":3520,"courses":5352,"roses":10529,"jew":16522,"##版":30433,"##ote":12184,"reeve":20726,"grenada":29153,"came":2234,"gran":12604,"rail":4334,"galilee":28928,"exiting":22371,"##葉":30469,"wives":10403,"greeting":14806,"grabs":13273,"aubrey":18961,"prohibition":13574,"##wala":23877,"3000":11910,"dragon":5202,"domingo":15586,"[unused2]":3,"scholars":5784,"[unused60]":61,"peptide":25117,"tractors":28292,"inlet":15824,"bubba":19606,"##10":10790,"##kley":22315,"[unused141]":146,"definitive":15764,"gerhard":21037,"cleric":29307,"##nor":12131,"furrowed":20555,"prompting":15870,"##ume":17897,"neighbouring":9632,"shed":8328,"##ahu":21463,"1661":24046,"hays":29051,"around":2105,"alicia":15935,"parcel":20463,"wing":3358,"##bria":21556,"review":3319,"enamel":29484,"riga":17557,"merits":22617,"lakes":6597,"lick":15385,"writing":3015,"##pha":21890,"things":2477,"moroccan":17494,"organizers":18829,"traitor":17328,"paranoia":27890,"una":14477,"album":2201,"[unused335]":340,"cameo":12081,"predecessor":8646,"##iti":25090,"ieee":15368,"mcintyre":24564,"134":15170,"baghdad":13952,"requested":7303,"flaws":21407,"il":6335,"1791":14362,"davies":9082,"universe":5304,"caution":14046,"debris":11385,"##oge":23884,"abigail":15983,"ash":6683,"##ggio":20650,"lodged":20451,"sinister":16491,"accommodations":26167,"##tures":22662,"1832":10212,"repeating":15192,"ད":1428,"argentina":5619,"waking":12447,"##rika":23778,"heroin":19690,"moths":14885,"##lined":18194,"halle":19769,"প":1367,"drones":24633,"m1":23290,"##orum":20527,"multiplied":28608,"##hine":14014,"##ध":29862,"manual":6410,"¡":1067,"journals":9263,"##cloth":23095,"##urn":14287,"dq":25410,"##♯":30154,"incorporates":12374,"convicted":7979,"##mu":12274,"payroll":26854,"recognized":3858,"clenching":23970,"##tat":29336,"straw":13137,"houghton":21234,"privileges":14310,"regulation":7816,"volcanoes":23694,"emphasis":7902,"bmw":13154,"jimenez":22790,"rebuilding":14584,"cabinet":5239,"fairs":21947,"wessex":27886,"table":2795,"locating":26339,"[unused775]":780,"farmer":7500,"dion":19542,"##⁺":12744,"squat":26783,"sworn":10741,"mariano":22695,"##fat":27753,"backside":25065,"shortly":3859,"cessna":27664,"pictures":4620,"##vating":26477,"reissue":17173,"euros":19329,"basal":15191,"151":16528,"muzzle":17750,"bunk":25277,"sensitivity":14639,"torre":22047,"mice":12328,"##ɾ":29692,"honors":7836,"armies":8749,"cara":14418,"henrietta":20775,"pass":3413,"methyl":25003,"extension":5331,"soundtrack":6050,"found":2179,"[unused585]":590,"deliveries":23534,"slap":14308,"searched":9022,"##lift":18412,"viscount":12182,"##rrier":27051,"greenberg":24190,"parting":20254,"##rled":27501,"spielberg":28740,"topic":8476,"unpublished":19106,"primitive":10968,"previous":3025,"meter":8316,"##政":30386,"thug":26599,"batting":9640,"genealogical":29606,"benton":18685,"m2":25525,"##movable":25661,"duc":26363,"playoff":7808,"viewer":13972,"insignia":16751,"##ᄋ":29999,"teenagers":12908,"##kled":19859,"##vie":13469,"gaa":19930,"divided":4055,"##bbled":12820,"distinguishing":20852,"##ean":11219,"positive":3893,"98":5818,"##chan":14856,"condition":4650,"woolf":29572,"handing":13041,"¾":1093,"kennedy":5817,"punishments":29115,"##imov":25299,"accessible":7801,"roar":11950,"##vard":25911,"##laya":22923,"inches":5282,"biased":25352,"##tung":21847,"month":3204,"craters":27561,"boarding":9405,"infringement":20701,"##ivated":21967,"magazine":2932,"1857":8204,"thank":4067,"beginning":2927,"clinch":29119,"janeiro":11497,"crook":19302,"unaware":11499,"transylvania":20816,"exclusion":15945,"[unused536]":541,"townsend":16139,"casually":13217,"sanders":12055,"self":2969,"dyed":28432,"dark":2601,"axes":19589,"cb":17324,"ice":3256,"theta":23963,"maverick":27187,"[unused475]":480,"yuan":11237,"mohawk":22338,"##yang":12198,"resemble":13014,"minus":15718,"haiti":12867,"fishes":21995,"motives":17108,"pursue":7323,"lausanne":22256,"overboard":27089,"forbes":10822,"ellen":9155,"cartwright":27513,"pneumonia":18583,"手":1858,"philanthropist":15246,"experts":8519,"fidelity":22625,"nintendo":10022,"1841":9840,"184":19681,"loaned":13190,"chester":8812,"borneo":15688,"protest":6186,"##lysis":26394,"conflicting":19326,"marijuana":16204,"treats":18452,"enhance":11598,"[unused634]":639,"irrational":23179,"cite":21893,"ridley":20608,"roast":25043,"##nator":27413,"horn":7109,"[unused138]":143,"##り":30212,"interaction":8290,"positively":13567,"chatting":22331,"##ppel":27877,"cows":17188,"treaties":16013,"contenders":27236,"eps":20383,"∈":1596,"adorned":19189,"tray":11851,"##ბ":29975,"##lass":27102,"med":19960,"land":2455,"allergic":27395,"##olin":18861,"kindly":19045,"##↑":30112,"##verance":21998,"580":23712,"stripes":13560,"minds":9273,"##100":18613,"consequences":8465,"bullock":25200,"[unused941]":946,"more":2062,"differs":12980,"mysterious":8075,"xu":15990,"1912":4878,"blurred":18449,"amadeus":27185,"articulated":20742,"##ত":29898,"longed":23349,"roommate":18328,"session":5219,"happened":3047,"##bbs":17226,"op":6728,"##ima":9581,"facilitated":19601,"志":1851,"！":1986,"##糹":30460,"##ces":9623,"marks":6017,"glue":25238,"[unused270]":275,"##thy":16921,"မ":1437,"pontifical":22362,"##mara":28225,"midwest":13608,"##ख":29852,"consent":9619,"##itis":13706,"manhattan":7128,"manned":15371,"predict":16014,"carrie":13223,"forces":2749,"led":2419,"ballad":11571,"apparently":4593,"bt":18411,"slumped":14319,"bowling":9116,"##ћ":29764,"cab":9298,"##mise":28732,"congestion":20176,"rating":5790,"heterosexual":28229,"remembrance":19451,"historians":7862,"##gers":15776,"redundant":21707,"convoys":23083,"summoned":11908,"##52":25746,"bum":26352,"ನ":1400,"plaintiff":20579,"tanker":20135,"canyon":8399,"hardness":23608,"[unused257]":262,"[unused688]":693,"##ssler":23385,"macquarie":23903,"##街":30472,"securely":28999,"sourced":23184,"小":1829,"##group":17058,"ping":17852,"biology":7366,"##aud":19513,"250":5539,"explosions":18217,"star":2732,"scowled":17474,"dice":18740,"glaring":16124,"nazis":13157,"sonora":26647,"bessie":29298,"storing":23977,"##tters":24168,"i":1045,"accents":24947,"struggling":8084,"lure":17256,"##lat":20051,"[unused392]":397,"scanner":26221,"gem":17070,"##fb":26337,"auditorium":11448,"drill":12913,"petite":20146,"kelsey":21004,"hive":26736,"refugee":13141,"##<":29629,"##hri":26378,"##lets":13461,"1814":10977,"12th":5940,"##rik":15564,"1680":24621,"barry":6287,"lithium":22157,"cocky":24995,"##場":30332,"unfamiliar":16261,"gown":11739,"jean":3744,"##ichi":11319,"piazza":22463,"rutherford":18472,"##yne":9654,"lobby":9568,"##dication":25027,"richard":2957,"subdued":20442,"worcestershire":20218,"slovenia":10307,"##lden":28476,"ren":14916,"[unused645]":650,"servers":14903,"cellular":12562,"lands":4915,"tempo":13657,"##ose":9232,"##fell":23510,"geology":13404,"##nburg":22642,"[unused302]":307,"owning":19273,"corridor":7120,"fk":14352,"croatia":8097,"shouldn":5807,"chapter":3127,"peasants":13193,"broadcasters":18706,"impressions":19221,"##ия":23483,"obscure":14485,"absent":9962,"welles":23447,"ernst":10728,"emissions":11768,"fellowship":7881,"mood":6888,"##tc":13535,"##bble":11362,"##田":30437,"alsace":24922,"jang":23769,"calls":4455,"optimistic":21931,"stark":9762,"persians":27229,"##fer":7512,"mentioning":18625,"obstruction":27208,"[unused473]":478,"donate":21357,"joseph":3312,"cheeks":6029,"iucn":20333,"dignity":13372,"##acies":20499,"medallist":28595,"recorder":14520,"watered":27129,"[unused958]":963,"offshore":12195,"design":2640,"louder":10989,"twins":8178,"1815":10679,"linguist":22978,"peach":18237,"conjunction":9595,"their":2037,"jared":8334,"##urst":29402,"heroine":18869,"archway":28189,"pinyin":9973,"charms":24044,"treason":14712,"slamming":15209,"##igny":26978,"[unused211]":216,"alexa":24969,"projectile":25921,"sept":17419,"memories":5758,"havre":28890,"barriers":13500,"loosely":11853,"##ressed":16119,"rao":10546,"mechanic":15893,"disgust":12721,"bride":8959,"academie":19669,"##5":2629,"grounded":16764,"bon":14753,"##ei":7416,"scenic":12916,"delegate":11849,"grandpa":15310,"bleak":21657,"主":1747,"cheek":5048,"cullen":19925,"torpedo":9862,"bent":6260,"raging":17559,"albania":10407,"portrayed":6791,"darkness":4768,"##ona":7856,"fowler":14990,"aisle":12485,"baden":12189,"frontal":19124,"twenty20":22240,"save":3828,"underway":14128,"ee":25212,"fling":27655,"decreasing":16922,"helplessly":24942,"displaced":12936,"dobson":27679,"carmen":11425,"lighting":7497,"chick":14556,"accounting":9529,"ic":24582,"pools":12679,"analogy":23323,"preferring":21393,"ono":21058,"loyalist":23414,"##omy":16940,"superstar":18795,"##wine":21924,"gui":26458,"separate":3584,"ᄂ":1456,"molecular":8382,"alloys":28655,"setup":16437,"rolled":4565,"##boro":12691,"regeneration":20045,"##rrard":29599,"##tial":20925,"bromley":27979,"rated":6758,"ami":26445,"editing":9260,"##tled":14782,"caps":9700,"anchors":24674,"ejected":22607,"engaged":5117,"alligator":28833,"asshole":22052,"antigua":26023,"##yed":20821,"##ு":29933,"insurance":5427,"##ngo":16656,"buzz":12610,"kilometers":7338,"examined":8920,"lowers":24950,"hissed":11402,"oldest":4587,"clouded":26761,"##can":9336,"##iction":28097,"captured":4110,"mari":16266,"opium":21075,"##ম":29906,"provisional":10864,"hosting":9936,"##†":30061,"##anial":27532,"betting":19244,"concurrency":24154,"[unused580]":585,"pubs":23598,"acceptable":11701,"с":1196,"不":1744,"dogs":6077,"colin":6972,"camera":4950,"##write":26373,"peter":2848,"laptop":12191,"horsepower":15149,"agrarian":23226,"partisans":20762,"adolescence":29101,"greed":22040,"advocacy":12288,"andrea":8657,"pussy":22418,"inaccurate":24949,"casual":10017,"neuroscience":23700,"frame":4853,"craftsman":26286,"##rating":15172,"moldova":16772,"spaces":7258,"languages":4155,"হ":1377,"tails":17448,"laboratory":5911,"traumatic":19686,"carlton":12989,"[unused102]":107,"vulnerability":18130,"##hof":14586,"##dim":22172,"##ھ":29844,"campo":22339,"cans":18484,"##dan":7847,"potentially":9280,"handling":8304,"foliage":19624,"##hiro":18334,"bout":10094,"wheat":10500,"sorry":3374,"cock":10338,"match":2674,"rodents":28156,"motel":14901,"inducted":8120,"##lard":20822,"ʻ":1145,"[unused261]":266,"bennett":8076,"##tched":28265,"excluded":12421,"##eous":14769,"rochelle":25649,"rihanna":25439,"stairwell":22109,"tesla":26060,"lumpur":17761,"##quist":18331,"strategies":9942,"breakdown":12554,"[unused851]":856,"scroll":17186,"brook":9566,"squadron":3704,"##holder":14528,"hedges":25840,"agreed":3530,"diaspora":18239,"[unused638]":643,"178":19289,"topology":19587,"##sma":26212,"[unused777]":782,"lap":5001,"##brick":25646,"emeritus":12372,"##nish":24014,"coa":28155,"##as":3022,"##ต":29947,"accommodate":8752,"newscast":20306,"vary":8137,"restless":15035,"intervals":14025,"partnership":5386,"con":9530,"enable":9585,"privately":9139,"bates":11205,"##uaries":22579,"fathers":11397,"unclear":10599,"ourselves":9731,"ruse":26307,"ceylon":16447,"##js":22578,"kidnapping":15071,"surprising":11341,"galloway":22372,"stresses":23253,"moniker":21937,"norte":19931,"redistribution":25707,"[unused159]":164,"rigid":11841,"swiftly":12128,"staff":3095,"##front":12792,"##rne":12119,"strict":9384,"sal":16183,"philology":29286,"##ش":29825,"issue":3277,"solvent":23735,"preventing":10723,"broughton":29187,"##otti":21325,"governors":11141,"freight":8441,"archie":13255,"socket":22278,"nor":4496,"##sle":25016,"security":3036,"sox":9175,"exhibit":8327,"stammered":28532,"revive":17995,"a2":22441,"evil":4763,"##jhl":29001,"heck":17752,"regent":11315,"absorb":16888,"epithet":19626,"keller":16155,"yorkshire":7018,"[unused219]":224,"lex":17244,"went":2253,"uncomfortably":22502,"teasing":12216,"taliban":16597,"holder":9111,"galaxy":9088,"つ":1664,"##ate":3686,"rituals":13549,"215":17405,"coliseum":18338,"##60":16086,"tradition":4535,"##carbon":26190,"capital":3007,"illegal":6206,"warrington":23051,"ʑ":1137,"traders":13066,"squinting":29156,"clapton":24705,"46th":27990,"garbage":13044,"ghostly":24407,"footballer":4362,"jogged":27812,"##ij":28418,"barley":21569,"soothing":16684,"##у":29748,"legislative":4884,"replica":15059,"york":2259,"##oli":10893,"[unused753]":758,"rewarded":14610,"dime":27211,"sha":21146,"preacher":14512,"sheer":11591,"##uri":9496,"##erson":18617,"pods":26723,"##lding":24573,"toys":10899,"sinai":20837,"products":3688,"baldwin":10970,"##sions":27466,"pleasure":5165,"keys":6309,"mingled":25959,"ย":1416,"sbs":21342,"##amen":27245,"observer":9718,"lifts":13695,"止":1887,"goods":5350,"dorothea":24052,"surprised":4527,"hurrying":27951,"[unused635]":640,"gnome":25781,"workout":27090,"fc":4429,"lulu":21744,"regulator":21618,"cove":11821,"##lee":10559,"uniform":6375,"madeline":16974,"wasps":23146,"effortlessly":29483,"didn":2134,"##oke":11045,"rustic":27471,"[unused922]":927,"1769":20663,"chewing":17492,"##─":30142,"plainly":24250,"upton":26900,"towards":2875,"illustrations":11249,"vanishing":24866,"whistling":24350,"ballroom":14307,"tower":3578,"jingle":29262,"shaw":8233,"transmitter":11659,"[unused540]":545,"scored":3195,"wins":5222,"seminole":28909,"boating":23639,"##dial":27184,"##ucci":16835,"milano":21613,"expertise":11532,"double":3313,"clouds":8044,"trustee":13209,"corp":13058,"1977":3355,"jacobite":28725,"hauling":23113,"hub":9594,"athlete":8258,"insisting":22604,"provides":3640,"sole":7082,"vh1":26365,"##bourne":11634,"rico":7043,"##cio":9793,"wilhelm":9070,"distinctive":8200,"fourteenth":15276,"earth":3011,"cu":12731,"stacy":18566,"chao":22455,"ᄊ":1462,"elm":17709,"attitude":7729,"jett":22962,"gunfire":16978,"audrey":14166,"##back":5963,"docked":25727,"##gins":16529,"projected":11310,"applicants":17362,"graphical":20477,"[unused146]":151,"##rgan":16998,"##ᵐ":30038,"excursion":26144,"pounded":13750,"slave":6658,"lifetime":6480,"dies":8289,"ड":1321,"squadrons":11435,"leukemia":25468,"restrict":21573,"stopped":3030,"assignments":14799,"llc":11775,"##lkirk":23913,"##nagar":14346,"fbi":8495,"bandage":24446,"genome":13458,"jen":15419,"nutrition":14266,"ready":3201,"disposal":13148,"buddhist":7992,"roy":6060,"outdoors":19350,"yielding":21336,"ld":25510,"reginald":14435,"supervisors":22565,"ћ":1217,"##iman":18505,"integral":9897,"reggae":15662,"outrage":19006,"63":6191,"wearing":4147,"perished":23181,"escorted":13127,"rudy":18254,"##dating":16616,"diving":9404,"pamela":17217,"##af":10354,"ե":1223,"blues":5132,"peshawar":28777,"disadvantage":20502,"rd":16428,"rose":3123,"expo":16258,"fighting":3554,"masked":16520,"receiver":8393,"node":13045,"lucrative":21115,"scented":25738,"preach":25250,"spell":6297,"cartridge":15110,"[unused876]":881,"monasteries":15947,"entrance":4211,"[unused452]":457,"zane":6944,"##য":29907,"##jian":27685,"volkswagen":18817,"[unused701]":706,"whitney":9809,"trying":2667,"51":4868,"cassette":13903,"reminding":15906,"##hui":20552,"loan":5414,"ltd":5183,"##sco":9363,"##sson":7092,"##ria":4360,"raised":2992,"##國":30326,"##cha":7507,"reflections":16055,"bolt":10053,"approximation":20167,"[unused266]":271,"neal":11030,"organizer":19012,"preparing":8225,"transcription":14193,"magdalena":23984,"comeback":12845,"ellison":21513,"burr":22715,"##sw":26760,"paw":22195,"04":5840,"yong":18999,"biting":12344,"pavel":18635,"scripts":14546,"##cat":11266,"performer":9256,"?":1029,"accelerated":14613,"##cite":17847,"hybrid":8893,"ག":1426,"toulon":27160,"respectively":4414,"worrying":15366,"bites":15424,"##ively":14547,"devout":26092,"chen":8802,"##福":30452,"jenna":13504,"sunni":18883,"##ians":7066,"bratislava":22992,"##ifice":23664,"struck":4930,"ks":29535,"trenton":17148,"##ɲ":29689,"ω":1179,"##জ":29894,"invade":18445,"strewn":25259,"achieving":10910,"sugarcane":28910,"steadily":11328,">":1028,"beforehand":25828,"ᵏ":1501,"##omics":25524,"subjective":20714,"ulysses":22784,"swimming":5742,"primarily":3952,"revenge":7195,"american":2137,"kolkata":13522,"##ア":30219,"##tti":6916,"colleen":28385,"##lia":6632,"anhalt":27088,"ɫ":1120,"kaplan":22990,"implications":13494,"drained":11055,"resigning":24642,"美":1935,"112":11176,"poznan":18320,"##zzling":20838,"ego":13059,"vinegar":29387,"##ω":29739,"##ந":29922,"colliery":19462,"##dou":26797,"##ச":29919,"##erian":27549,"rex":10151,"pulsed":24107,"airlines":7608,"pendulum":28300,"vaulted":24616,"sonny":13584,"pendleton":24349,"forecast":19939,"##hear":26560,"information":2592,"timbers":26238,"boiler":15635,"flirting":20661,"liability":14000,"##bag":16078,"safely":9689,"flowing":8577,"k":1047,"[unused361]":366,"larsen":20094,"curry":15478,"##uven":27346,"comparable":12435,"suzanne":15146,"engage":8526,"insulation":25710,"probe":15113,"practiced":9051,"[unused86]":87,"scholastic":24105,"mbe":20301,"mobility":12969,"performances":4616,"depicted":8212,"##herton":27949,"high":2152,"##ero":10624,"1800s":19878,"maze":15079,"urbana":27929,"jewelry":11912,"university":2118,"##ke":3489,"affluent":22666,"##osis":12650,"##lah":14431,"rat":9350,"storey":11676,"##enia":19825,"acquaintances":29409,"dismissal":15322,"sent":2741,"delle":24121,"silently":8601,"sausage":24165,"##heim":8049,"lone":10459,"ladies":6456,"sheila":15062,"194":19955,"admiring":24588,"uncertainty":12503,"##ნ":29985,"mating":15100,"produced":2550,"##physics":15638,"deutschland":28668,"##shida":25541,"##int":18447,"inuit":25179,"territorial":7894,"670":25535,"facebook":9130,"hansen":13328,"##zhi":19436,"presley":17229,"[unused108]":113,"ლ":1447,"enchanted":22454,"##color":18717,"film":2143,"towering":20314,"activists":10134,"helps":7126,"secretary":3187,"み":1678,"supporting":4637,"super":3565,"##eter":15141,"purposely":24680,"stretch":7683,"fission":27521,"horseshoe":23449,"zee":23727,"lyrical":16376,"fisherman":19949,"whilst":5819,"beige":28799,"kicks":14590,"alpine":10348,"consolidated":10495,"ض":1285,"unwanted":18162,"##gling":18483,"cords":24551,"purdue":19749,"freeman":11462,"classifications":26739,"flank":12205,"##emon":26941,"##mini":25300,"commodity":19502,"sergei":14543,"tak":27006,"herring":22103,"ink":10710,"jelly":20919,"[unused987]":992,"##´s":21932,"romanesque":17135,"vivian":13801,"##hide":26100,"coincided":18616,"trinidad":11856,"altitudes":21973,"seeming":16064,"energy":2943,"assisted":7197,"warns":19428,"村":1878,"##thing":20744,"hyderabad":13624,"redhead":26705,"momentary":29089,"italy":3304,"cent":9358,"fool":7966,"packets":23730,"impromptu":29213,"informed":6727,"evacuate":22811,"supportive":16408,"spirit":4382,"fond":13545,"gust":26903,"56":5179,"adjoining":13562,"##ook":14659,"joe":3533,"babies":10834,"1717":27525,"ascension":18071,"bp":17531,"penultimate":25512,"semantics":28081,"mumbled":11567,"##ita":6590,"were":2020,"flu":19857,"akron":22735,"##च":29854,"##matic":12644,"##ny":4890,"mix":4666,"pairs":7689,"[unused700]":705,"lab":6845,"jointly":10776,"disclosed":21362,"##rov":12298,"161":17365,"1726":28342,"[unused68]":69,"unusually":12890,"##glers":25555,"modernism":27254,"cappella":23013,"spartak":28560,"mates":14711,"aimee":23551,"outs":21100,"keith":6766,"imagined":8078,"himalayas":26779,"crawling":15927,"house":2160,"pow":23776,"vinnie":24214,"patrols":14703,"##ided":14097,"only":2069,"wrought":18481,"consists":3774,"busch":15840,"grammatical":24402,"ක":1403,"jacques":7445,"graceful":19415,"heightened":21106,"»":1090,"boring":11771,"##insky":20894,"amount":3815,"##mata":21022,"beds":9705,"overseeing":19642,"##ball":7384,"##imum":28591,"iron":3707,"##hli":27766,"##cliff":27580,"rearview":28726,"hardest":18263,"stray":15926,"long":2146,"teased":13074,"finn":9303,"[unused260]":265,"literal":18204,"##line":4179,"lyric":13677,"nexus":26041,"marilyn":14749,"feminine":12320,"grasping":20854,"apple":6207,"а":1180,"cylinders":18729,"responses":10960,"omar":13192,"##how":14406,"softly":5238,"sweeney":21178,"reduces":13416,"astronomers":26357,"sinking":10186,"previously":3130,"germans":7074,"looked":2246,"360":9475,"##ং":29882,"##qa":19062,"##hawks":16043,"[unused664]":669,"tightening":18711,"token":19204,"immortals":26796,"scrambling":25240,"philippines":5137,"roots":6147,"electronically":28926,"fluids":20989,"hutton":20408,"aa":9779,"salem":10389,"assigned":4137,"uci":14504,"[unused871]":876,"virgil":17270,"##min":10020,"##jas":17386,"##ca":3540,"delightful":26380,"##gen":6914,"conor":20545,"slides":14816,"giggling":21783,"##ล":29954,"transfers":15210,"##rail":15118,"disastrous":16775,"unofficially":29322,"requests":11186,"vulgar":29364,"choose":5454,"horrific":23512,"##oll":14511,"slaves":7179,"denounced":17787,"spruce":19893,"fuji":20933,"manifold":19726,"chosen":4217,"technician":16661,"zealand":3414,"##ngen":25997,"then":2059,"bolivian":26075,"tokyo":5522,"conductors":23396,"fore":18921,"##dd":14141,"gothenburg":22836,"downwards":28457,"finite":10713,"hm":20287,"donovan":12729,"fitz":27706,"crisis":5325,"archers":23118,"matters":5609,"address":4769,"yellowish":17804,"[unused534]":539,"m":1049,"##onal":16026,"[unused415]":420,"august":2257,"mixes":21109,"nagar":16395,"[unused64]":65,"tolkien":23602,"social":2591,"chinatown":22321,"crawford":10554,"西":1947,"voivodeship":7225,"knockout":11369,"1914":4554,"meaningful":15902,"brotherhood":12865,"##₉":30085,"1748":24445,"qi":18816,"keeping":4363,"alton":26374,"longer":2936,"##owe":29385,"canopy":14582,"[unused544]":549,"portrait":6533,"bo":8945,"used":2109,"keyboards":6269,"apply":6611,"##止":30413,"##agh":17988,"beak":23525,"ʼ":1146,"##uma":12248,"contemplating":25247,"interfered":28976,"robertson":9923,"[unused348]":353,"benefited":19727,"huffington":26149,"paso":17161,"pulitzer":17618,"##eto":18903,"roland":8262,"##ki":3211,"affordable":15184,"##iq":18515,"sort":4066,"freshmen":26612,"challenged":8315,"doom":12677,"hourly":21462,"southwestern":8772,"##sław":23305,"puzzled":14909,"much":2172,"expert":6739,"salary":10300,"thumped":28963,"bourgeois":22846,"##ナ":30241,"frantically":16460,"sebastien":28328,"screwing":29082,"faulkner":25109,"edited":5493,"grande":9026,"##unes":26639,"demoted":25692,"dammit":20878,"##side":7363,"##oint":25785,"س":1282,"picked":3856,"##cuit":28168,"bose":21299,"claudia":13479,"tattoos":18395,"humanist":24464,"button":6462,"herd":14906,"eponymous":15248,"##eborg":27614,"each":2169,"outside":2648,"##kari":20224,"marian":14042,"pas":14674,"battista":28422,"po":13433,"##花":30466,"patricia":10717,"botanical":13194,"1705":29326,"circumstances":6214,"ins":16021,"roared":14242,"מ":1255,"photographed":16164,"westminster":9434,"##tism":17456,"depth":5995,"eastern":2789,"graph":10629,"##nica":12782,"##yana":16811,"elaine":15263,"closeness":28398,"foil":17910,"bal":28352,"##chet":20318,"soft":3730,"##vac":24887,"venezuela":8326,"spurred":22464,"mothers":10756,"administrators":15631,"##մ":29776,"howled":27489,"roche":20162,"localized":22574,"ramsay":19460,"freshwater":12573,"coding":16861,"##uous":8918,"remarkably":17431,"specialists":15744,"replacement":6110,"##tour":21163,"swayed":20122,"healer":19783,"racing":3868,"mythological":21637,"complained":10865,"mainland":8240,"า":1422,"transitional":17459,"##秋":30455,"´":1084,"##wski":10344,"voted":5444,"##ar":2906,"do":2079,"tense":9049,"gangs":18542,"##ality":23732,"southport":27494,"opposes":29158,"theologian":17200,"sen":12411,"yankees":11081,"##ation":3370,"jake":5180,"accidents":13436,"downed":20164,"##tute":24518,"collapsed":7798,"mach":24532,"##f":2546,"outset":26674,"louisa":15731,"ceremonies":10912,"藤":1944,"##por":17822,"uncommon":13191,"##lyn":9644,"critical":4187,"stealing":11065,"penthouse":22855,"dealings":24069,"##ented":14088,"peck":18082,"##ろ":30215,"georgia":4108,"tunnel":5234,"posts":8466,"ʰ":1140,"enables":12939,"educators":19156,"throat":3759,"communications":4806,"rwanda":17591,"pursued":9505,"francis":4557,"coverage":6325,"adolf":12500,"cognitive":10699,"slept":7771,"dedication":12276,"approve":14300,"##athy":17308,"##eu":13765,"wavy":23098,"byte":24880,"gasping":17054,"soil":5800,"##oun":23709,"eastenders":28936,"##pac":19498,"##kulam":28871,"stare":6237,"seller":14939,"−":1597,"pudding":29593,"budgets":26178,"khalid":21828,"palette":27396,"##nick":13542,"yu":9805,"ð":1098,"homework":19453,"wonderland":20365,"armor":8177,"prelate":26595,"[unused846]":851,"apes":27754,"##iidae":15648,"simulations":24710,"610":19827,"##old":11614,"suit":4848,"aziz":21196,"brunei":18692,"ransom":16540,"adam":4205,"grange":18203,"[unused925]":930,"concession":16427,"я":1210,"steamed":21734,"liza":20503,"inventor":12235,"##ice":6610,"folly":26272,"chill":10720,"##aceae":18339,"famously":18172,"reserves":8269,"郡":1959,"officially":3985,"concentrate":10152,"shiny":12538,"scowl":19981,"fascist":14870,"attain":18759,"bali":20222,"##uis":27020,"sucking":13475,"originally":2761,"##esh":9953,"vancouver":6930,"eddie":5752,"fooled":25857,"densely":19441,"dollars":6363,"instrumental":6150,"##hra":13492,"sir":2909,"##gi":5856,"taxation":14952,"##off":7245,"plaintiffs":23953,"pierre":5578,"##akes":20060,"##alla":25425,"banners":23562,"##anna":25789,"during":2076,"carefully":5362,"palestinians":21524,"weeks":3134,"isil":19600,"greyish":26916,"##mony":22847,"##yck":28377,"##jee":16963,"arab":5424,"[unused54]":55,"palace":4186,"1930s":5687,"##fare":17883,"##cking":23177,"exhibiting":22922,"##ylus":18871,"ships":3719,"massimo":28080,"supervise":28589,"##dina":18979,"tasmania":12343,"appropriated":29223,"##oese":23379,"potion":26722,"restrictions":9259,"cocktail":18901,"stared":3592,"pensacola":26073,"observing":14158,"##ther":12399,"los":3050,"celebrates":21566,"weren":4694,"innings":7202,"medical":2966,"metal":3384,"##and":5685,"which":2029,"displayed":6913,"lacey":16355,"dominance":13811,"##using":18161,"illustrating":28252,"christ":4828,"##oned":17799,"resembling":15525,"plea":14865,"forewings":13211,"1767":21502,"[unused460]":465,"incorporation":16935,"whaling":23687,"somerville":27209,"plunging":29059,"klein":12555,"gleam":24693,"nikki":14470,"conjecture":22647,"pillar":14809,"む":1679,"[unused162]":167,"proposals":10340,"sweaty":19889,"miracles":17861,"abbot":11428,"massacre":9288,"prefix":17576,"weighing":15243,"since":2144,"subscribers":17073,"concentrations":14061,"reorganisation":24934,"barons":21487,"flame":8457,"マ":1723,"enjoyable":22249,"crore":21665,"perpendicular":19581,"arguing":9177,"period":2558,"##з":29744,"smyth":28103,"torpedoes":18544,"generates":19421,"1830":9500,"lebanon":8341,"survivor":12084,"travers":29053,"heavyweight":8366,"cried":6639,"fucked":21746,"##ryn":18143,"edison":17046,"interlude":25347,"##kushima":24917,"creator":8543,"conan":16608,"chang":11132,"ɔ":1112,"downward":14047,"cinemas":19039,"reclamation":27389,"mountain":3137,"##и":10325,"use":2224,"[unused990]":995,"ku":13970,"optional":11887,"127":13029,"identifying":12151,"hassan":13222,"##dl":19422,"linden":22066,"undead":17315,"hardin":27522,"renovated":10601,"[unused254]":259,"louisville":11577,"gleamed":25224,"cumberland":12310,"##harat":28074,"henan":27837,"portals":27388,"treating":12318,"rann":26312,"report":3189,"heads":4641,"sexually":12581,"yarn":27158,"trails":9612,"enrichment":27226,"socialists":21633,"##rs":2869,"佐":1764,"##ulated":8898,"pro":4013,"fools":18656,"crown":4410,"35th":20198,"incomplete":12958,"cartoons":13941,"##フ":30246,"undone":25757,"rowland":20539,"₱":1575,"##lin":4115,"shells":10986,"[unused971]":976,"ვ":1443,"ச":1383,"demand":5157,"##growth":26982,"nair":22525,"tajikistan":23538,"investigative":15025,"steak":21475,"[unused447]":452,"krakow":14576,"fault":6346,"harriet":14207,"4a":26424,"##ows":15568,"kilograms":18857,"cougars":26317,"1847":9176,"117":12567,"[unused388]":393,"candace":22905,"##shore":19208,"patrick":4754,"opposing":10078,"##arm":27292,"healthcare":9871,"occasion":6686,"rotherham":27456,"1663":29016,"caledonia":19305,"liszt":26273,"bucket":13610,"systemic":22575,"assured":8916,"scoffed":26326,"swedish":4467,"##キ":30227,"sentenced":7331,"##dict":29201,"##前":30302,"moist":11052,"hearings":19153,"rooster":27681,"##ml":19968,"##koff":26126,"decay":13121,"flipping":18497,"foundation":3192,"##ե":29770,"justice":3425,"、":1635,"demographic":15982,"projective":27473,"rocky":6857,"counterparts":14562,"magma":28933,"release":2713,"beasts":15109,"##ง":29946,"lass":27333,"thicker":19638,"treaty":5036,"1630":24994,"hitler":8042,"weighted":18215,"[unused495]":500,"encouraged":6628,"idf":24011,"theorist":24241,"rubbish":29132,"microscopy":29105,"面":1976,"administrator":8911,"adventure":6172,"fraternity":13577,"orthodox":6244,"acceleration":16264,"clutch":15357,"melting":13721,"julia":6423,"bless":19994,"prentice":23429,"oz":11472,"ongoing":7552,"thief":12383,"platinum":8899,"##oni":10698,"##nivorous":29193,"deter":28283,"##ᵏ":30037,"divisional":14167,"likes":7777,"gender":5907,"odd":5976,"appetite":18923,"medial":23828,"pennsylvania":3552,"##grounds":28951,"dunn":14145,"formidable":18085,"embryo":28086,"saudi":8174,"##phone":9864,"jamie":6175,"glenn":9465,"##ming":6562,"##usion":14499,"##re":2890,"ء":1269,"##ulum":25100,"sewer":22365,"千":1784,"##ε":29723,"bug":11829,"shadowed":25843,"beaches":12212,"combustion":16513,"hamburg":8719,"##isson":24077,"ugly":9200,"##rter":19418,"1756":22370,"deposed":18298,"merlin":15993,"hamas":22129,"dick":5980,"criminals":12290,"percent":3867,"ants":16111,"conflict":4736,"129":14378,"secretaries":23660,"secret":3595,"148":16459,"##bh":23706,"environmental":4483,"ξ":1168,"processor":13151,"##thus":19877,"lungs":8948,"brent":12895,"##olis":20872,"redesign":25136,"##leg":23115,"thierry":26413,"superstructure":28391,"##paper":23298,"guadalajara":22887,"children":2336,"##φ":29736,"##奈":30340,"defiance":19674,"maine":7081,"declaration":8170,"smooth":5744,"armand":20371,"showcasing":27696,"[unused161]":166,"highness":17114,"ballet":7250,"##arable":25236,"[unused950]":955,"operatic":22534,"concerning":7175,"unanimously":15645,"productions":5453,"idols":24438,"shoulder":3244,"efficiency":8122,"##!":29612,"orbit":8753,"explanations":17959,"guard":3457,"disappear":10436,"citations":22921,"yard":4220,"##ppa":13944,"shoved":7468,"jewels":15565,"gardner":11764,"gives":3957,"terrorists":15554,"determining":12515,"promotion":4712,"automobile":9935,"##ц":29751,"##kker":23793,"trojan":23445,"johanna":21498,"1923":4927,"[unused912]":917,"tall":4206,"##zz":13213,"driven":5533,"unofficial":11982,"扌":1859,"factories":11123,"##yn":6038,"v":1058,"skaters":24789,"tie":5495,"watson":7908,"##rc":11890,"##51":22203,"jax":13118,"buses":7793,"held":2218,"##ieving":25587,"popular":2759,"floor":2723,"##orin":28741,"uttered":20947,"portrayal":13954,"swat":25414,"empowerment":23011,"spying":22624,"beginnings":16508,"subset":16745,"[unused918]":923,"markus":23030,"turtles":16489,"challenge":4119,"appearance":3311,"borg":28709,"praising":15838,"sanchez":10568,"deployment":10813,"bed":2793,"egyptians":23437,"revelation":11449,"hissing":26386,"##mo":5302,"plasma":12123,"hannah":8410,"fetal":25972,"##ned":7228,"pharmaceutical":13859,"miss":3335,"husbands":19089,"deutsche":11605,"##mah":25687,"calf":19134,"consumers":10390,"men":2273,"potassium":18044,"rehab":24497,"moderator":29420,"pena":19409,"increase":3623,"fog":9666,"graves":9729,"splendid":21459,"##holes":19990,"carpenter":10533,"negotiate":13676,"tv":2694,"creating":4526,"protestant":8330,"magnitude":10194,"assumes":15980,"##user":20330,"berkshire":15570,"step":3357,"dusty":12727,"130":7558,"opus":16895,"##chaft":29043,"evade":26399,"341":28358,"injunction":22928,"increased":3445,"bat":7151,"bertha":25079,"syracuse":11736,"tires":13310,"amelia":11556,"##has":14949,"[unused902]":907,"schemes":11683,"convenience":15106,"unwilling":15175,"scheduled":5115,"ii":2462,"cutting":6276,"links":6971,"##⁷":30076,"outfit":11018,"donegal":25415,"spend":5247,"immigrated":17352,"operates":5748,"archdeacon":21742,"warming":12959,"operated":3498,"accessories":16611,"afternoon":5027,"sonia":16244,"mormon":15111,"bradley":8981,"disagreed":18335,"##imi":27605,"summit":6465,"##ope":17635,"brandt":19407,"undergo":13595,"##q":4160,"reassure":24647,"restraints":28054,"prince":3159,"##cope":16186,"difficulty":7669,"giuseppe":12574,"rehearsals":24760,"constituent":13794,"telangana":23764,"##tou":24826,",":1010,"cease":13236,"responsibility":5368,"##enne":24336,"[unused389]":394,"phased":21718,"##nberger":28825,"charitable":11128,"cancellation":16990,"my":2026,"origin":4761,"hamish":28859,"##pd":17299,"parted":10277,"mini":7163,"natasha":17399,"##ading":23782,"##tsky":26824,"walden":24834,"eligible":7792,"accounted":14729,"wings":4777,"##yat":26139,"fuselage":13478,"##aru":15728,"rouse":27384,"ps":8827,"medicines":20233,"##zia":12871,"dec":11703,"devastating":14886,"standings":11869,"nomination":6488,"##unk":16814,"##iser":17288,"friedman":18486,"elders":13376,"[unused883]":888,"##₁":11871,"coveted":28821,"##vir":21663,"1721":27689,"hopefully":11504,"bananas":26191,"[unused370]":375,"clients":7846,"sleek":21185,"albeit":12167,"sumner":23922,"##ม":29951,"belongings":20033,"bunny":16291,"bear":4562,"aka":9875,"⅓":1581,"mvp":12041,"馬":1980,"customary":16120,"##iver":16402,"κ":1164,"##itating":16518,"##zie":14272,"sparse":20288,"vain":15784,"imperialism":28087,"interviewing":27805,"computing":9798,"subtle":11259,"psychedelic":18147,"bullets":10432,"lightning":7407,"liberalism":26505,"redesigned":17051,"langdon":15232,"salad":16521,"feb":13114,"operatives":25631,"##riders":28116,"divinity":16968,"preceded":11677,"##gam":22864,"frustration":9135,"composed":3605,"chloride":19057,"rebecca":9423,"arnold":7779,"rq":28134,"calculating":20177,"grooves":25880,"notice":5060,"aging":12520,"revered":23886,"##chester":25322,"retreat":7822,"ousted":28368,"336":27954,"##rka":22379,"##ɕ":29680,"farming":7876,"qui":21864,"##rlin":19403,"indefinite":25617,"jurisdictions":17370,"##del":9247,"cell":3526,"relative":5816,"chronological":23472,"provocative":26422,"¢":1068,"activism":16841,"hey":4931,"verses":11086,"walking":3788,"carving":18441,"cardinals":9310,"blaine":20002,"##lius":15513,"discouraged":22585,"177":18118,"##inate":14776,"crafts":14030,"barking":19372,"[unused601]":606,"slab":17584,"coming":2746,"industrialist":21691,"spines":20352,"bony":22678,"##ße":17499,"##hana":15788,"あ":1646,"advertisements":14389,"knock":7324,"administrative":3831,"category":4696,"##ras":8180,"fatima":27596,"mughal":17877,"##ր":29784,"nikola":24794,"##os":2891,"uneven":17837,"mei":19734,"zhu":15503,"[unused231]":236,"##tick":26348,"helpless":13346,"izzy":16699,"sunny":11559,"visuals":26749,"[unused938]":943,"faction":10233,"billion":4551,"jarrett":24503,"bunch":9129,"fr":10424,"currie":20667,"nelly":29498,"es":9686,"savoy":16394,"[unused20]":21,"android":11924,"groundwater":22761,"marylebone":28537,"empty":4064,"ngos":22165,"millennia":27620,"printers":23557,"vuelta":21441,"golfer":20601,"32":3590,"list":2862,"##अ":29847,"##meister":28824,"evidenced":21328,"##義":30462,"refit":27070,"##gly":25643,"秋":1929,"erika":24900,"intrigued":18896,"unseen":16100,"flanked":15874,"trumpeter":28220,"reviewing":15252,"tq":28816,"aesthetics":20749,"##gga":23033,"gilbert":7664,"kurt":9679,"similarly":6660,"##iza":21335,"182":17691,"##pw":28400,"##на":19865,"rivals":9169,"suffolk":12291,"##time":7292,"##oro":14604,"intersection":6840,"chennai":12249,"kitchener":27154,"laced":17958,"manuel":7762,"fiona":13073,"integer":16109,"[unused416]":421,"##ს":29988,"decorated":7429,"numbering":15200,"太":1812,"##eca":19281,"bother":8572,"random":6721,"阿":1971,"board":2604,"blooms":29037,"derive":18547,"augustus":11668,"dash":11454,"##bio":26282,"ferdinand":9684,"[unused238]":243,"renault":14605,"appalled":29279,"1775":14276,"experimented":20918,"netting":26909,"snuck":24492,"spa":12403,"reflective":21346,"garrett":9674,"italians":16773,"shocked":7135,"lieutenant":3812,"foreigner":29524,"c1":27723,"bin":8026,"nightingale":21771,"[unused566]":571,"##us":2271,"##iling":16281,"[unused10]":11,"mascot":13314,"1761":21364,"1938":4260,"furnishings":23127,"ministry":3757,"spoiled":19582,"absurd":18691,"advisor":8619,"##lei":23057,"##oh":11631,"[unused907]":912,"gracefully":28266,"cream":6949,"helene":20149,"barony":19365,"december":2285,"comb":22863,"1880s":12751,"##gence":17905,"singleton":28159,"cheering":24867,"##gold":21270,"##カ":30226,"doin":24341,"bog":22132,"##14":16932,"ふ":1674,"isabel":11648,"nod":7293,"convergence":19143,"juliette":24696,"zinc":15813,"lecturer":9162,"fiji":11464,"vehicle":4316,"canoe":14347,"分":1775,"治":1900,"##psy":18075,"wants":4122,"brendan":15039,"einstein":15313,"##bba":22414,"##game":16650,"1965":3551,"##rya":20444,"##dman":21804,"compensation":9430,"stylized":19551,"contact":3967,"headline":17653,"ymca":26866,"ernest":8471,"tune":8694,"clutches":29497,"##pr":18098,"ticking":28561,"5000":13509,"[unused48]":49,"handball":12378,"marco":8879,"apology":12480,"mediation":26435,"clarify":25037,"tracy":10555,"chandra":16469,"packaged":21972,"boroughs":21413,"gaul":26522,"deemed":8357,"525":25621,"killer":6359,"##ieri":21939,"hurricanes":17035,"academy":2914,"1993":2857,"##bn":24700,"harris":5671,"knighted":19572,"aboard":7548,"##room":9954,"barbarians":28056,"hunched":20498,"##itch":20189,"buick":28865,"synthesis":10752,"quezon":26564,"commencing":25819,"oppression":20489,"triggering":29170,"ian":4775,"other":2060,"either":2593,"malaysia":6027,"millimetres":13388,"decided":2787,"##ब":29865,"popcorn":24593,"##6":2575,"graphics":8389,"vi":6819,"bayou":24818,"corps":3650,"##ක":29939,"invited":4778,"whatsoever":18971,"descends":23328,"laguna":18169,"lou":10223,"ch":10381,"feared":8615,"irritating":29348,"##ash":11823,"arcade":10877,"enlarged":11792,"tumbling":21552,"patna":29565,"city":2103,"visibility":16476,"semifinal":16797,"2a":23409,"##eurs":26744,"benevolent":25786,"animals":4176,"##lez":28060,"playfully":22608,"beating":6012,"par":11968,"66":5764,"legitimacy":22568,"diamonds":11719,"##km":22287,"##da":2850,"syriac":24109,"51st":26017,"entering":5738,"##ula":7068,"##rton":11715,"hairy":15892,"##jord":24876,"υ":1175,"jeanne":14537,"cumbria":25559,"mentor":10779,"##grade":24170,"stalked":15858,"contestant":10832,"offers":4107,"##gong":17036,"emperor":3750,"##fs":10343,"cartridges":22998,"observes":24451,"cycles":12709,"grouping":19765,"laden":14887,"06":5757,"##vi":5737,"times":2335,"containment":29174,"245":21005,"transitions":22166,"firstly":15847,"tonight":3892,"rome":4199,"mosques":21922,"##pel":11880,"computers":7588,"develop":4503,"prohibit":23469,"skopje":29255,"admiralty":14179,"02":6185,"elections":3864,"良":1938,"readily":12192,"offices":4822,"disappears":17144,"useful":6179,"his":2010,"##yp":22571,"##ario":16843,"shops":7340,"tapping":15135,"muhammad":7187,"ট":1359,"##monium":26387,"rapper":10687,"distinction":7835,"wal":24547,"greens":15505,"gregorian":25847,"##jean":27687,"ho":7570,"success":3112,"besieged":17923,"##itt":12474,"##kel":11705,"reeling":28515,"requiem":21199,"elected":2700,"ப":1388,"sequencing":24558,"##stan":12693,"##sir":29481,"goldberg":18522,"##jing":29518,"##jun":19792,"bulletin":13146,"meantime":12507,"19":2539,"twitch":19435,"##urance":25863,"frost":10097,"escaped":6376,"vamps":24064,"temperature":4860,"এ":1351,"reigned":21236,"##mut":28120,"joker":19318,"archduke":27463,"object":4874,"rain":4542,"districts":4733,"basics":24078,"objective":7863,"thugs":24106,"##ug":15916,"sharing":6631,"##rting":24097,"finishes":12321,"cuts":7659,"##hip":5605,"churches":5231,"horribly":27762,"caribbean":7139,"intending":16533,"obligatory":26471,"critics":4401,"anchor":8133,"harmonies":28594,"##vin":6371,"bilbao":25427,"drilled":24311,"##mies":28397,"attracts":17771,"improvement":7620,"lodge":7410,"coyote":20457,"spoke":3764,"sergeant":6722,"aerodrome":23843,"trough":23389,"##ried":11998,"##cap":17695,"garcia":7439,"firearms":13780,"##tic":4588,"##bone":14417,"debates":14379,"crowded":10789,"clearance":14860,"[unused715]":720,"##etched":29574,"anglia":24217,"1603":25625,"1786":17436,"palatinate":18990,"v6":25275,"prone":13047,"oman":16640,"##erland":22492,"authenticity":21452,"cad":28353,"medina":15761,"##ree":9910,"nm":13221,"337":28489,"##rked":19849,"offs":12446,"brown":2829,"letting":5599,"‚":1522,"francois":8173,"nathaniel":13961,"intra":26721,"cerambycidae":13168,"stanton":15845,"jenks":15119,"##anta":26802,"olivier":14439,"##pers":7347,"republicans":10643,"cfa":28125,"php":25718,"embrace":9979,"##→":30113,"springsteen":26002,"channels":6833,"##sive":12742,"[unused659]":664,"[unused190]":195,"1997":2722,"##lley":25105,"animal":4111,"felt":2371,"consist":8676,"##成":30380,"knocking":10591,"meyer":11527,"##cea":21456,"hubbard":16580,"gemini":21424,"com":4012,"wax":13844,"##aria":10980,"##ered":6850,"welcome":6160,"allan":8926,"ritchie":20404,"[unused50]":51,"messaging":24732,"##cion":10446,"[unused514]":519,"gifts":9604,"[unused443]":448,"mckay":16225,"##eke":23941,"森":1882,"lea":12203,"##ج":29819,"##rise":29346,"stink":27136,"battling":17773,"thought":2245,"##rret":27032,"##باد":25799,"met":2777,"##ih":19190,"installations":14111,"[unused357]":362,"sentai":28650,"financed":13790,"##edly":26207,"range":2846,"shaun":16845,"##lean":20898,"##puted":29462,"hopped":17230,"relegation":9591,"salvage":18340,"attend":5463,"##evic":17726,"satan":16795,"二":1752,"magnolia":24659,"[unused342]":347,"141":15471,"multinational":20584,"も":1681,"##rington":17281,"durable":25634,"sections":5433,"nomadic":21702,"##lla":4571,"##card":11522,"angry":4854,"guildford":26353,"henri":8863,"priscilla":25193,"dani":19522,"episodes":4178,"[unused706]":711,"tariffs":26269,"cum":13988,"cpu":17368,"insides":19008,"sadler":29012,"chicks":20649,"##otype":26305,"diversion":20150,"##rdes":26371,"##ran":5521,"pisa":25472,"sighting":29426,"macedonia":11492,"bafta":22284,"shore":5370,"mustafa":19683,"levant":24485,"attractive":8702,"##iz":10993,"##ন":29902,"joan":7437,"1653":29309,"ᄉ":1461,"##udence":29424,"afghan":12632,"howell":18473,"[unused821]":826,"##ba":3676,"[unused449]":454,"kilkenny":17131,"template":23561,"horse":3586,"[unused889]":894,"showcased":22443,"jealous":9981,"lynn":9399,"transferred":4015,"onto":3031,"guaranteed":12361,"##hiko":22204,"murdoch":19954,"seaman":21626,"metaphor":19240,"manages":9020,"bret":25626,"crises":25332,"rhine":10950,"penguins":18134,"counts":9294,"linebacker":15674,"`":1036,"lori":18669,"##thal":24090,"1908":5316,"insect":14211,"》":1640,"##rino":17815,"complaints":10821,"hagen":24047,"whirled":17097,"1753":23810,"treasurer":10211,"##script":22483,"freely":10350,"zeke":18270,"thai":7273,"[unused741]":746,"dude":12043,"presenting":10886,"270":13756,"sunken":23470,"##ј":29761,"##hoe":14490,"accept":5138,"calais":23116,"impress":17894,"body":2303,"surrendered":10795,"brutal":12077,"contains":3397,"operator":6872,"tactical":8608,"plug":13354,"bing":17620,"tend":7166,"jumps":14523,"automated":12978,"##imating":22835,"canons":21975,"light":2422,"™":1580,"guild":9054,"##bella":21700,"[unused126]":131,"sheridan":13243,"unlike":4406,"welterweight":20882,"mel":11463,"murders":9916,"compulsory":14770,"wired":17502,"sim":21934,"keeper":10684,"benin":21164,"jd":26219,"operators":9224,"reused":26513,"sadie":21330,"surrounding":4193,"pardon":14933,"##lists":27103,"ibn":7839,"euro":9944,"bay":3016,"##ange":22043,"landowner":20270,"[unused928]":933,"grip":6218,"107":10550,"warehouse":9746,"needles":17044,"preservation":8347,"##mia":10092,"##sty":21756,"gujarat":14288,"described":2649,"frank":3581,"impacts":14670,"charged":5338,"douglas":5203,"romanian":7056,"##rogen":22991,"ds":16233,"verified":20119,"##ssar":25556,"[unused813]":818,"helicopter":7739,"convinces":19480,"pacing":15732,"irritation":17373,"##立":30457,"hostess":22566,"handler":28213,"##lu":7630,"##–":30051,"shy":11004,"tuba":29242,"##ᄅ":29994,"##к":23925,"beads":17530,"difference":4489,"##sti":16643,"andhra":14065,"##rley":12866,"gymnast":25055,"##ว":29955,"nearly":3053,"inaugurated":11070,"picnic":12695,"##eral":21673,"needs":3791,"դ":1222,"detailed":6851,"sterling":10933,"##ce":3401,"永":1896,"thoughtfully":19897,"indoors":24274,"disorder":8761,"נ":1257,"grazed":26627,"predicting":29458,"mi":2771,"##rted":17724,"hilbert":27434,"##ezer":25733,"these":2122,"##ов":19259,"gymnasium":11288,"lamp":10437,"貴":1953,"stress":6911,"tugged":10621,"upgraded":9725,"manson":21440,"numb":15903,"diplomats":23473,"forrest":16319,"cared":8725,"1700":16601,"diagnosis":11616,"quilt":27565,"villains":16219,"marche":28791,"dug":8655,"metropolis":18236,"became":2150,"aviator":24035,"updated":7172,"queensland":5322,"arte":16185,"slit":18036,"mls":16287,"years":2086,"consume":16678,"##ust":19966,"dinah":26562,"##station":20100,"[unused804]":809,"sane":22856,"ђ":1211,"kilometres":3717,"##ר":29811,"slang":21435,"##light":7138,"je":15333,"directly":3495,"##ere":7869,"submerged":13563,"##ව":29943,"raj":11948,"resist":9507,"[unused797]":802,"conclusions":15306,"jurassic":19996,"staple":18785,"heaviest":26858,"[unused884]":889,"##rdi":17080,"##ausen":25701,"jogging":28233,"##38":22025,"expanse":22944,"architects":8160,"spilling":18054,"chronicle":9519,"suspiciously":21501,"caden":23600,"ー":1739,"firefighters":21767,"鈴":1965,"throw":5466,"chan":9212,"##hum":28600,"hilarious":26316,"wand":23967,"stemmed":27674,"##ople":27469,"accelerator":23468,"blackness":19573,"both":2119,"pledged":16970,"advent":13896,"beer":5404,"formulated":19788,"conservatives":11992,"##tori":29469,"skinny":15629,"τ":1174,"shorts":9132,"awarding":21467,"paragraph":20423,"eureka":21142,"##nk":8950,"leningrad":15930,"ki":11382,"گ":1305,"leaflets":27306,"wagon":9540,"appropriations":22713,"modular":19160,"ravi":16806,"staircase":10714,"mongolian":17855,"damn":4365,"rank":4635,"##hope":26441,"collaborators":21315,"##ław":19704,"crabs":26076,"belly":7579,"[unused533]":538,"diminished":15911,"tension":6980,"mathews":23287,"konrad":22958,"tyler":7482,"waldo":28806,"man":2158,"manny":16320,"citing":8951,"usc":15529,"hostel":21071,"##de":3207,"labels":10873,"clit":17962,"gasoline":13753,"vanguard":18332,"breeds":15910,"concerto":10405,"annabelle":24722,"leftist":24247,"##ually":28488,"diego":5277,"multi":4800,"p":1052,"emmy":10096,"pilots":8221,"wah":22894,"mm":3461,"sees":5927,"accessed":11570,"proportion":10817,"sliding":8058,"gabby":27183,"ferrari":13632,"##ை":29935,"bastion":26829,"##sb":19022,"##stic":10074,"burgess":17754,"##ן":29802,"tel":10093,"yesterday":7483,"strawberry":16876,"median":3991,"aerospace":13395,"preserves":18536,"##pan":9739,"leaned":4016,"##cier":19562,"youths":19634,"mansion":7330,"##ย":29952,"##）":30514,"ape":23957,"##aw":10376,"390":20024,"##hya":17915,"amir":18904,"distrust":29245,"alvarez":16309,"[unused385]":390,"պ":1233,"fins":18564,"##ge":3351,"45th":24634,"##enting":26951,"suv":15620,"varieties":9903,"1802":13515,"clarence":11805,"commercially":11088,"reprise":16851,"costs":5366,"dwarves":29281,"stats":26319,"deeper":6748,"rendition":19187,"[unused781]":786,"professors":12655,"veins":9607,"338":27908,"debuting":24469,"missouri":5284,"cortex":17132,"ensuing":13831,"##tam":15464,"氷":1895,"[unused682]":687,"lateral":11457,"huddersfield":19715,"zu":16950,"##max":17848,"bottle":5835,"tao":20216,"anatomical":28141,"valleys":12467,"crosby":14282,"150":5018,"expands":24545,"disciplined":28675,"tube":7270,"jars":25067,"analytical":17826,"shelby":15294,"generals":11593,"##eli":20806,"texans":23246,"ie":29464,"names":3415,"35":3486,"asahi":29465,"##⁴":30073,"projections":21796,"##iciencies":28227,"tank":4951,"1500":10347,"##tock":17406,"morale":19292,"jockey":13989,"foraging":26912,"csi":22174,"tiled":26510,"neill":11511,"bomber":9472,"##sca":15782,"##pts":22798,"##trick":22881,"nara":27544,"insane":9577,"1865":6725,"##弘":30369,"eyes":2159,"##flies":24019,"adaptation":6789,"soils":13622,"linda":8507,"canteen":26449,"##aga":16098,"respective":7972,"checking":9361,"optimism":27451,"esq":25325,"commitments":17786,"interiors":20769,"feudal":16708,"aisles":25442,"boilers":20412,"excessive":11664,"##hit":16584,"umar":27981,"combat":4337,"bellowed":27386,"sultanate":21308,"有":1873,"molecules":10737,"care":2729,"canvas":10683,"1785":17262,"##yme":25219,"[unused892]":897,"baku":16807,"conner":17639,"pens":25636,"africa":3088,"germain":19192,"##戦":30382,"dean":4670,"clash":13249,"[unused854]":859,"wrist":7223,"moore":5405,"attribute":17961,"##ruck":29314,"dryly":20825,"moor":16808,"東":1879,"freeing":22198,"mushrooms":23827,"flat":4257,"[unused559]":564,"kisses":8537,"lime":14123,"274":25586,"swami":20087,"17th":5550,"troop":10123,"##za":4143,"##washed":27283,"##aver":22208,"ge":16216,"eli":12005,"leopard":16240,"peace":3521,"nitrogen":14114,"bombed":18897,"cylindrical":18797,"indiana":5242,"zodiac":28501,"plate":5127,"##enham":23580,"withdrawn":9633,"allegedly":9382,"symphony":6189,"expects":24273,"spaceship":25516,"festival":2782,"unreasonable":29205,"##coat":16531,"pain":3255,"##hire":20908,"demolition":12451,"ocean":4153,"mckenzie":18506,"professorship":22661,"##qing":19784,"expeditionary":15372,"##tries":21011,"extending":8402,"##ese":6810,"shipment":22613,"instrumentalist":29253,"hasn":8440,"barrie":24953,"[unused595]":600,"tracey":25984,"scuba":28651,"clerical":23106,"endured":16753,"skating":10080,"clips":15281,"ninety":13568,"explorer":10566,"mega":13164,"eve":6574,"opined":26084,"customer":8013,"geelong":18664,"giant":5016,"##mpt":27718,"##เ":29959,"antwerp":14003,"fuscous":18121,"composite":12490,"ep":4958,"snacks":27962,"enterprises":9926,"substrates":23725,"chases":29515,"999":25897,"lookout":19052,"occupational":16928,"manning":11956,"tuck":18029,"galileo":21514,"initiate":17820,"poorly":9996,"joanna":15730,"sirens":20675,"bailey":8925,"ح":1276,"bryce":19757,"[unused543]":548,"rotten":11083,"##schaft":26527,"illicit":25049,"tyre":21904,"flyer":23821,"della":8611,"stereo":12991,"##iers":10136,"rounding":26939,"biological":6897,"1907":5528,"wcw":24215,"distances":12103,"dragging":11920,"rhapsody":29395,"appointed":2805,"⅔":1582,"##lifting":26644,"nicholas":6141,"ravens":17272,"tighten":21245,"petitions":24320,"lp":6948,"soothe":28384,"number":2193,"maternity":23676,"overcame":26463,"apparel":26278,"##ffled":28579,"##pathy":20166,"pig":10369,"վ":1235,"nairobi":21124,"##ison":10929,"1755":21417,"private":2797,"##হ":29913,"herbert":7253,"routing":16972,"extensions":14305,"ninja":14104,"worthless":22692,"yuki":24924,"vivo":24269,"##ato":10610,"##gno":26745,"footsteps":9717,"favourites":28271,"pity":12063,"thomas":2726,"bhp":22245,"diagnosed":11441,"##ta":2696,"##rok":27923,"timeline":17060,"rover":13631,"1766":21410,"bare":6436,"##fighter":20027,"integrated":6377,"raft":21298,"faltered":26015,"moreover":9308,"##ota":17287,"##1":2487,"adequate":11706,"floated":13715,"rebounds":11049,"acceptance":9920,"##rao":25667,"cartoonist":19659,"1885":6571,"rosy":26851,"larson":21213,"##宀":30344,"scrap":15121,"hoc":21929,"lift":6336,"##urne":21737,"dolphin":17801,"##ctable":23576,"posse":25751,"##flict":29301,"##lation":13490,"potato":14557,"##tort":25485,"luxembourg":10765,"##mann":5804,"should":2323,"hurdles":18608,"cass":16220,"brigades":14589,"tricky":24026,"asserted":13647,"grassland":20331,"##ffle":18142,"kidding":12489,"frankfurt":9780,"electron":10496,"denmark":5842,"generation":4245,"dat":23755,"##rani":21578,"featherweight":27145,"goodnight":22708,"##յ":29777,"kiara":28870,"fined":16981,"[unused331]":336,"offer":3749,"##eft":29218,"assisting":13951,"sensual":18753,"comfort":7216,"street":2395,"##ே":29934,"clung":14752,"bremen":16314,"wherever":11210,"afforded":22891,"##zi":5831,"deal":3066,"iranian":7726,"huang":15469,"1626":28818,"without":2302,"many":2116,"oilers":19778,"touch":3543,"##ish":4509,"[unused236]":241,"##ough":10593,"layne":22452,"line":2240,"harmonica":16527,"alexandre":16971,"##forms":22694,"remove":6366,"##morphic":18078,"##kur":18569,"avoided":9511,"flora":10088,"cupped":13740,"filmfare":25648,"dying":5996,"##fa":7011,"trainer":10365,"##ife":29323,"##yria":20379,"count":4175,"proposal":6378,"abraham":8181,"##rut":22134,"os":9808,"triumphant":25251,"clint":16235,"clapped":18310,"pupil":11136,"confident":9657,"nick":4172,"##ptive":24971,"##fles":28331,"jeep":14007,"confused":5457,"daze":28918,"249":23628,"synth":24203,"##urt":19585,"intentionally":15734,"vein":12818,"hokkaido":20826,"allocation":16169,"reveal":7487,"suspend":28324,"prior":3188,"christopher":5696,"寺":1827,"recounted":22906,"dilapidated":29283,"770":29065,"andover":29463,"superiors":22983,"analyzing":20253,"##bruck":28985,"##yle":12844,"›":1533,"newspaper":3780,"martial":7761,"locks":11223,"##ired":27559,"diseases":7870,"##ologists":16886,"cultivation":13142,"criterion":19229,"otto":8064,"examines":20798,"matt":4717,"seize":15126,"##ricted":20623,"independently":9174,"'":1005,"supports":6753,"staying":6595,"dormitory":21538,"lev":23310,"cars":3765,"developmental":13908,"summers":10945,"hut":12570,"remodeled":27170,"##kle":19099,"municipalities":7602,"blocking":10851,"saint":3002,"nebula":25677,"scattered":7932,"[unused462]":467,"illness":7355,"execute":15389,"wes":14008,"##mill":19912,"##lev":20414,"parallels":18588,"celebrations":12035,"manila":9011,"##ossa":21842,"##hesion":21471,"munitions":21061,"zac":29250,"##udes":22087,"##rup":21531,"xander":29019,"routinely":19974,"peanut":21443,"[unused731]":736,"conservatory":11879,"recorded":2680,"disappointment":10520,"entertainment":4024,"magical":8687,"johnstone":24160,"confirms":23283,"##ata":6790,"anarchist":18448,"##tier":17579,"peacefully":21614,"memoir":12558,"ʒ":1138,"generate":9699,"stanza":29509,"endorsed":11763,"##ars":11650,"penetrate":19136,"##odon":28716,"tornadoes":22668,"dangerously":20754,"329":29567,"libya":12917,"instead":2612,"[unused539]":544,"provide":3073,"touchdown":7921,"##[":29634,"##iii":28954,"##ර":29941,"inscriptions":12920,"acquaintance":18363,"czechoslovak":21282,"politician":3761,"[unused532]":537,"hits":4978,"planck":26486,"eternity":12715,"28":2654,"restroom":28249,"cavaliers":25096,"87":6584,"##ander":12243,"##ingham":16445,"official":2880,"lagos":16738,"##person":27576,"##agne":25440,"1812":9842,"##igh":18377,"##ah":4430,"[unused693]":698,"telephone":7026,"drown":19549,"cloudy":24706,"dominion":13738,"tavern":13090,"swam":16849,"glance":6054,"protruding":23868,"monuments":10490,"messages":7696,"koln":28306,"##ographic":13705,"presents":7534,"wade":10653,"communion":15661,"breasts":12682,"genus":3562,"##bay":15907,"paths":10425,"scores":7644,"warmer":16676,"inspiring":18988,"##พ":29950,"##ior":25346,"wanderers":14237,"form":2433,"crooked":15274,"games":2399,"##missible":26770,"##iving":14966,"swapped":29176,"##hyl":29598,"[unused832]":837,"watford":21740,"specified":9675,"##dget":24291,"##秀":30454,"audience":4378,"lose":4558,"##wad":26016,"skulls":21542,"convertible":22840,"punta":27377,"allow":3499,"##grants":27444,"行":1945,"arrays":27448,"##aur":21159,"##avia":15164,"interpreted":10009,"##dora":24562,"mats":22281,"boardwalk":29496,"brigham":22727,"controls":7711,"photographic":12416,"spawned":18379,"cavalier":28778,"##iferous":23930,"attacks":4491,"grand":2882,"##rant":17884,"fairfax":17833,"gorge":14980,"standard":3115,"久":1748,"ת":1267,"ignacio":22988,"##rad":12173,"trondheim":26331,"drains":18916,"[unused84]":85,"ツ":1712,"comte":19758,"vegetable":15415,"##yi":10139,"instrument":6602,"slade":18048,"blow":6271,"[unused19]":20,"medicare":27615,"polgara":27041,"##formed":29021,"boots":6879,"archaeologist":18821,"occupies":14133,"##ala":7911,"##piece":11198,"entertained":21474,"beautifully":17950,"##林":30407,"ⁱ":1537,"traveller":21916,"##ami":10631,"##hia":12995,"signaling":14828,"##ded":5732,"ringo":25589,"granted":4379,"infinity":15579,"sensible":21082,"wars":5233,"south":2148,"marathi":18388,"chain":4677,"berkeley":8256,"omnibus":27284,"campaigned":16196,"headlining":26533,"1849":9037,"consumption":8381,"printer":15041,"##coming":18935,"##mm":7382,"halifax":10475,"gb":16351,"barclay":23724,"##ens":6132,"securing":12329,"dwell":23120,"findings":9556,"gallant":26984,"pere":23976,"contamination":18701,"##香":30505,"cd":3729,"##drick":24092,"limbs":10726,"deserve":10107,"darrell":23158,"[unused305]":310,"experimental":6388,"busy":5697,"##40":12740,"maize":21154,"austria":5118,"eh":15501,"night":2305,"[unused712]":717,"acquitted":18538,"vertically":20018,"carrot":25659,"crossover":16335,"shadow":5192,"81":6282,"##sic":19570,"գ":1221,"implicit":24655,"immediate":6234,"dynamo":17205,"##wall":9628,"agree":5993,"##nah":15272,"accepts":13385,"sweep":11740,"sights":15925,"##arians":28369,"encompassing":19129,"severed":16574,"⊂":1610,"##ggy":22772,"branch":3589,"##ji":4478,"recipe":17974,"decreased":10548,"sierra":7838,"apparent":6835,"rainy":16373,"frederic":15296,"odisha":21874,"trajectory":22793,"jewellery":21545,"absorption":16326,"melody":8531,"##良":30464,"retrospective":15354,"coordinate":13530,"mustered":21900,"psychologist":15034,"sockets":27540,"nix":23330,"##！":30512,"september":2244,"ร":1417,"[unused527]":532,"[unused55]":56,"acoustic":6490,"geek":29294,"gustavo":24801,"##ands":29560,"lithuanian":10333,"##rly":21194,"diameter":6705,"surround":15161,"samoa":15075,"admired":12749,"401":22649,"girls":3057,"ditch":14033,"rake":26008,"場":1806,"columnist":13317,"resign":12897,"vis":25292,"##para":28689,"remarks":12629,"foster":6469,"clicking":22042,"1720":23535,"pasta":24857,"harta":26283,"##tro":13181,"sticks":12668,"neutron":20393,"voiced":6126,"remixes":15193,"essay":9491,"##dson":25112,"##wley":20609,"mention":5254,"outdoor":7254,"##ghton":21763,"resides":11665,"vines":16702,"[unused247]":252,"sharif":20351,"rear":4373,"envelope":11255,"cuthbert":24583,"unleashed":22416,"attained":12754,"linnaeus":21610,"nominal":15087,"shale":18488,"bruised":18618,"hosts":6184,"##ddling":21814,"oath":11292,"wharton":24249,"databases":17881,"arriving":7194,"missionary":8696,"phillips":8109,"hadn":2910,"worldwide":4969,"aftermath":10530,"flood":7186,"##ieu":17301,"cookies":16324,"か":1651,"federal":2976,"sustained":8760,"nouns":19211,"turtle":13170,"##rera":24068,"##”":30059,"kelly":5163,"peerage":18760,"##∪":30132,"fourier":26899,"##oured":16777,"confusing":16801,"reassuring":21093,"doubles":7695,"yucatan":28631,"overseas":6931,"disagree":21090,"liu":8607,"paz":18183,"stocked":24802,"樹":1884,"printed":6267,"reserved":9235,"everett":15160,"arrogant":15818,"weakening":22031,"##lta":24458,"undertake":16617,"sex":3348,"メ":1726,"straightened":11168,"[unused770]":775,"disabilities":13597,"doubts":13579,"##hora":16977,"sleeves":15114,"stephens":15037,"##har":8167,"##bos":15853,"##we":8545,"nobody":6343,"stout":18890,"formula":5675,"badge":10780,"verona":20197,"charlemagne":27257,"paramount":11734,"spectroscopy":25458,"##lster":29576,"##isto":20483,"martyrs":18945,"##arat":25879,"distributor":16632,"antibiotics":24479,"ς":1172,"weddings":20429,"birds":5055,"disaster":7071,"poisoned":17672,"##nington":23155,"ctv":28720,"scalp":21065,"trip":4440,"tablet":13855,"myspace":24927,"pe":21877,"##child":19339,"yang":8675,"committee":2837,"obscured":23649,"sheltered":18304,"##see":19763,"##leader":19000,"nationals":10342,"##nto":13663,"hawks":12505,"##mming":25057,"having":2383,"lark":23404,"slid":4934,"##ま":30203,"anita":12918,"##ي":14498,"anatolia":23747,"nemesis":21363,"־":1240,"hellenic":23122,"differ":11234,"rates":6165,"unidentified":20293,"##ᵖ":30040,"births":18250,"fay":23201,"lopez":8685,"1913":5124,"reign":5853,"##wing":9328,"glider":18788,"[unused21]":22,"unlocked":14058,"horizon":9154,"astrid":27376,"د":1278,"greasy":26484,"faso":22773,"organize":10939,"jolt":22538,"breathe":7200,"##男":30438,"[unused500]":505,"115":10630,"franchise":6329,"post":2695,"metallic":12392,"australia":2660,"flourish":24299,"indicted":21801,"##wai":21547,"##tenberg":21806,"dresses":14464,"mutants":23892,"der":4315,"ortiz":19439,"hats":16717,"##atable":27892,"certainty":15855,"resulted":4504,"bequeathed":27180,"insertion":23851,"##titled":21309,"rams":13456,"shannon":10881,"##fting":26169,"₇":1554,"ventures":13252,"##ಾ":29938,"demon":5698,"string":5164,"[unused298]":303,"jamaica":9156,"[unused501]":506,"notification":26828,"mercury":8714,"infiltrate":29543,"宮":1824,"jay":6108,"amenities":19870,"mercantile":25420,"socks":14829,"fortunes":18023,"switched":7237,"##rva":19146,"goddamn":16477,"##gara":24864,"[unused46]":47,"nightmare":10103,"[unused496]":501,"sediments":20476,"flutter":23638,"walked":2939,"donald":6221,"viewing":10523,"##comb":18274,"ན":1429,"[unused692]":697,"mum":12954,"copyright":9385,"མ":1432,"signature":8085,"wrong":3308,"##cta":25572,"sachs":22818,"bain":28477,"blue":2630,"rune":23276,"circling":18519,"magistrates":23007,"##uated":16453,"snap":10245,"cycle":5402,"gilles":21717,"پ":1302,"mb":16914,"coined":13279,"pier":10356,"trenches":19874,"☉":1622,"tragedy":10576,"gonzalez":10121,"ulster":11059,"word":2773,"screening":11326,"prose":12388,"##erated":16848,"dimly":25361,"##ᄆ":29995,"adventures":7357,"rees":22131,"deposition":19806,"##mbre":19908,"1763":18432,"##غ":29831,"beloved":11419,"weaken":23021,"aristotle":17484,"##ant":4630,"nh":18699,"1921":4885,"searing":25764,"repair":7192,"gia":27699,"burying":20491,"honduras":14373,"truly":5621,"##uising":28580,"##კ":29982,"samsung":19102,"classified":6219,"minute":3371,"291":27173,"softness":27012,"carnival":11485,"dance":3153,"##ths":26830,"wolverine":22162,"buttons":11287,"dakota":7734,"efficient":8114,"jerked":8245,"barren":20225,"purcell":26429,"avant":14815,"natalia":21521,"##ʔ":29705,"7th":5504,"hobbs":23748,"ginger":14580,"##drome":29171,"breathing":5505,"##ving":6455,"breakup":19010,"gained":4227,"juventus":22760,"users":5198,"nu":16371,"##थ":29860,"vista":13005,"angola":13491,"car":2482,"##zek":24506,"kato":27496,"##stand":21515,"##rem":28578,"kay":10905,"##kata":29123,"values":5300,"sculpted":19921,"皇":1917,"seam":25180,"locomotives":7830,"hired":5086,"val":11748,"##christ":26654,"palaces":22763,"[unused160]":165,"habitats":10746,"barack":13857,"##kawa":13069,"denise":15339,"faces":5344,"ト":1714,"benfica":26542,"visa":9425,"##ₜ":30099,"hurts":13403,"##ways":14035,"ワ":1736,"estimates":10035,"memorabilia":28663,"argent":23157,"##dam":17130,"1853":8933,"[unused154]":159,"⁰":1536,"statutes":18574,"offspring":13195,"##iner":26455,"mammalian":26524,"##vot":22994,"flint":13493,"dispatched":14501,"tampa":9925,"1910":4976,"dundee":14252,"increases":7457,"##jured":26949,"barbed":25007,"##կ":29774,"##ffi":26989,"ecstasy":19069,"neumann":22860,"##talk":28014,"troy":9553,"##biotic":26591,"gotta":10657,"hash":23325,"##als":9777,"colbert":23928,"sick":5305,"lead":2599,"##eka":19025,"hyper":23760,"subtropical":11935,"robot":8957,"spice":17688,"pronunciation":15498,"stryker":25429,"chief":2708,"believes":7164,"deux":24756,"田":1911,"ħ":1103,"hmm":17012,"griffin":9258,"ள":1393,"odds":10238,")":1007,"##ctive":15277,"##न":29863,"bodies":4230,"[unused351]":356,"sweating":18972,"##bund":27265,"hearst":25419,"book":2338,"sounding":9391,"insights":20062,"contributors":16884,"collects":17427,"##uder":29190,"##lm":13728,"##mics":22924,"opposition":4559,"solemnly":26294,"bloomington":26372,"claudio":19569,"trailers":21389,"##प":29864,"ghanaian":27202,"trilogy":11544,"columbia":3996,"assassinated":16370,"foo":29379,"bid":7226,"accident":4926,"##tage":26702,"##ceptive":28687,"arabian":13771,"allegiance":14588,"expect":5987,"##slow":26338,"patience":11752,"withdrew":6780,"musicians":5389,"sherry":22268,"randomly":18154,"nakamura":23981,"sicily":12071,"fredrik":25454,"clandestine":24450,"forefront":22870,"missiles":10815,"adept":26398,"##nett":15361,"##cc":9468,"%":1003,"scratch":11969,"##ff":4246,"shirts":11344,"zhejiang":26805,"hated":6283,"elliott":9899,"assessed":14155,"wage":11897,"turf":14585,"membership":5779,"##laise":25122,"ハ":1718,"suggestion":10293,"knowledge":3716,"fund":4636,"1751":24440,"##ص":29826,"##udge":15979,"##lani":21141,"venice":7914,"stakes":7533,"blanchard":26870,"carthage":21959,"##rina":11796,"mohan":18529,"ध":1326,"stacey":19997,"blah":27984,"legislator":22964,"[unused121]":126,"nathan":7150,"packing":14743,"boca":22765,"survival":7691,"cricket":4533,"spot":3962,"##我":30381,"occupying":13992,"isaiah":18850,"##ᄇ":29996,"revolver":17863,"alma":11346,"##ʑ":29703,"⁹":1543,"suffering":6114,"840":28122,"perspectives":15251,"hanoi":24809,"##ulsive":23004,"slavic":13838,"saxons":28267,"opener":16181,"##mour":20360,"taps":25316,"dent":21418,"organising":21317,"zambia":15633,"dhabi":23153,"exposure":7524,"samantha":11415,"1922":4798,"[unused519]":524,"gustav":13430,"equatorial":21333,"addressed":8280,"inputs":20407,"track":2650,"uniquely":20640,"feed":5438,"prejudice":18024,"superintendent":9133,"##door":23835,"philosophy":4695,"walls":3681,"utc":11396,"##arns":23549,"cafes":23812,"##mberg":29084,"av":20704,"##bbling":15343,"[unused824]":829,"exhibition":4538,"arrondissement":20522,"computed":24806,"accessibility":23661,"invariably":26597,"loose":6065,"tramway":17050,"murmured":7152,"##cp":21906,"##neer":19755,"##vill":26548,"envy":21103,"exchange":3863,"mocking":19545,"collin":22180,"thigh":10120,"portions":8810,"[unused208]":213,"emerged":6003,"named":2315,"345":23785,"gabe":12900,"rasped":28459,"alert":9499,"intimidated":28028,"##marks":27373,"turing":28639,"##oris":21239,"##olic":23518,"[unused610]":615,"halfway":8576,"##mering":27851,"suites":19796,"geographic":9183,"[unused844]":849,"extras":26279,"primaries":27419,"propulsion":16404,"##ised":5084,"finalized":23575,"presenters":25588,"armistice":19125,"dimension":9812,"responding":14120,"##tica":22723,"sabre":22002,"atmosphere":7224,"allowance":21447,"wartime":12498,"blessings":24618,"dex":20647,"470":21064,"##cytes":27321,"##dah":18417,"again":2153,"1692":28622,"##wave":16535,"[unused163]":168,"章":1932,"（":1987,"niger":16842,"flagship":10565,"maddy":20789,"kei":26679,"iberian":21988,"overthrow":16857,"colleges":6667,"wan":14071,"franz":8965,"commuted":26704,"defence":4721,"auburn":12704,"stuff":4933,"##द":29861,"powers":4204,"camden":13267,"mold":18282,"##vre":12229,"目":1918,"pilgrims":17992,"heirs":15891,"stole":10312,"##tron":15312,"salzburg":18369,"teachings":12209,"sea":2712,"spaniards":20999,"contradiction":26917,"##kaya":20718,"stanley":6156,"[unused250]":255,"clustered":25221,"grouped":15131,"##ores":16610,"37th":23027,"##犬":30434,"contributor":12130,"parma":19177,"sibling":22941,"##zzy":28753,"tendency":11765,"1682":29478,"shifted":5429,"##long":10052,"survives":13655,"##lit":15909,"ang":17076,"₎":1559,"##anies":28064,"principals":27928,"##ckman":24080,"slits":29199,"bellevue":26756,"pipe":8667,"desperate":7143,"bonus":6781,"shrugged":6345,"legally":10142,"boyfriend":6898,"[unused509]":514,"##gor":20255,"magnum":19691,"##川":30361,"maiden":10494,"lincoln":5367,"ন":1366,"peer":8152,"##obe":20891,"##hong":19991,"remorse":23124,"complications":12763,"hawthorne":23440,"theater":4258,"pursuit":8463,"development":2458,"battalion":4123,"sly":18230,"inhabit":21490,"indies":9429,"आ":1312,"cloud":6112,"bishops":8414,"##ე":29978,"[unused720]":725,"disneyland":25104,"hancock":13849,"##sey":7952,"territory":3700,"treatments":13441,"domenico":18638,"##cies":9243,"preston":8475,"know":2113,"hemisphere":14130,"buck":10131,"overland":21400,"##tsk":29064,"[unused463]":468,"williamson":14333,"viper":17947,"##tian":10772,"indigo":22472,"##i":2072,"wrenched":26971,"splitting":14541,"renal":25125,"stevens":8799,"mortally":26495,"##ener":24454,"##ging":4726,"additions":13134,"##onis":27296,"probability":9723,"shrill":28349,"weber":13351,"愛":1853,"organizations":4411,"desirable":16166,"twelve":4376,"1782":16890,"pepper":11565,"solved":13332,"beatrice":14807,"surviving":6405,"##ג":29790,"vaughn":18220,"deserved":10849,"hendricks":28895,"，":1989,"afford":8984,"insulted":23637,"penitentiary":29569,"1931":4739,"depths":11143,"denton":23906,"directive":16449,"muscled":24909,"[unused590]":595,"masterpiece":17743,"trouble":4390,"capabilities":9859,"gambling":12219,"##nis":8977,"mitch":11857,"bro":22953,"[unused271]":276,"lantern":12856,"##dini":26039,"morales":17103,"##lr":20974,"##ನ":29936,"visitor":10367,"hydroelectric":18541,"lynne":26938,"kettle":22421,"##kis":14270,"parana":28383,"darmstadt":28381,"insurrection":27860,"activate":20544,"alumnus":19678,"accidental":17128,"receptor":10769,"northern":2642,"##dana":25917,"[unused721]":726,"elevation":6678,"similar":2714,"[unused113]":118,"stairway":21952,"ramos":18882,"embarked":11299,"¦":1072,"fished":26281,"earned":3687,"vowed":18152,"dorothy":9984,"airways":13095,"##champ":25450,"superhuman":27061,"ƒ":1108,"judgments":26186,"[unused790]":795,"34":4090,"colombia":7379,"farmhouse":16870,"wooded":17172,"satire":18312,"##unced":22392,"heading":5825,"##hs":7898,"competitor":12692,"actively":8851,"奈":1814,"beau":17935,"terror":7404,"##kos":15710,"afterlife":25115,"enfield":25821,"##gua":19696,"nyu":27935,"icc":16461,"##house":4580,"sterile":25403,"potter":10693,"cardiac":15050,"6":1020,"calderon":28129,"##‖":30054,"1836":10081,"[unused367]":372,"hayes":10192,"screw":11224,"##sc":11020,"plume":26888,"bae":25818,"felipe":17095,"upon":2588,"香":1979,"##eem":21564,"favour":7927,"1864":6717,"##pace":15327,"restart":23818,"scala":26743,"successive":11165,"adviser":11747,"##千":30310,"##tower":23196,"assure":14306,"brink":20911,"madonna":11284,"[unused965]":970,"##haven":14650,"makeup":5789,"stall":13498,"barbara":6437,"##craft":10419,"departments":7640,"juvenile":11799,"inflammation":21733,"gospels":24131,"jet":6892,"deadline":15117,"polish":3907,"errors":10697,"petroleum":11540,"##lt":7096,"hopeful":17772,"stressed":13233,"traverse":20811,"receipt":24306,"defenses":13345,"groundbreaking":23222,"shaded":25273,"##mology":20570,"##going":26966,"home":2188,"argue":7475,"##gf":25708,"malabar":28785,"coiled":24599,"nottinghamshire":20126,"crystals":14438,"clade":21697,"pembroke":21457,"accounts":6115,"stade":15649,"zion":19999,"lines":3210,"80s":16002,"к":1189,"upset":6314,"apocalyptic":27660,"exhibits":10637,"always":2467,"colchester":20115,"sagged":26719,"1891":6607,"talking":3331,"affinity":16730,"auditor":20964,"shoes":6007,"astros":22058,"twigs":27964,"##ype":18863,"gillespie":21067,"##ₚ":30097,"##ppet":29519,"wrestler":10706,"##ental":21050,"1699":28718,"deborah":15555,"##gies":17252,"storylines":22628,"specialised":17009,"∂":1592,"abdomen":13878,"stroking":14943,"audiences":9501,"carvings":22838,"lifted":4196,"reads":9631,"##itung":28813,"##গ":29891,"artefacts":25762,"utterly":12580,"liberia":18039,"1781":16788,"inheritance":12839,"##tl":19646,"stops":6762,"##щ":29754,"dissent":24116,"hungarian":5588,"##bs":5910,"##lithic":28508,"monitors":15410,"216":20294,"streaks":21295,"##tley":18492,"buyers":17394,"jozef":23258,"navigation":9163,"woodward":19133,"bridges":7346,"pizza":10733,"marguerite":15334,"inception":12149,"##bia":11607,"##gt":13512,"annexation":18985,"timeless":27768,"urges":23876,"gmina":7061,"correspondence":11061,"sleep":3637,"sang":6369,"[unused652]":657,"affirmed":19768,"##edge":24225,"[unused560]":565,"bois":19651,"antics":27440,"##ece":26005,"yale":7996,"liberated":19553,"discussing":10537,"apprehension":25809,"##avs":29553,"telugu":12180,"unions":9209,"particularly":3391,"shipments":24636,"enacted":11955,"leiden":20329,"furniture":7390,"##iard":14619,"##raz":20409,"wastewater":28269,"moat":25266,"cabinets":20053,"forum":7057,"asteroid":12175,"##under":20824,"catholicism":16138,"osaka":13000,"deploy":21296,"magnate":27470,"##orf":16347,"homogeneous":24854,"##fted":18915,"broadly":13644,"framing":20241,"pharmacy":13882,"uncles":27328,"spirituality":21244,"alike":11455,"##mada":23574,"distinguished":5182,"floods":14295,"[unused802]":807,"astro":28625,"402":28048,"barney":15377,"218":20741,"monte":10125,"[unused686]":691,"yourself":4426,"glands":23340,"ب":1271,"insist":18292,"jayne":24408,"##eux":20860,"anonymous":10812,"miniatures":28615,"##rice":17599,"disliked":18966,"vatican":12111,"surgery":5970,"autobiography":10828,"wires":14666,"我":1855,"vienna":6004,"glasgow":6785,"cowboys":11666,"smith":3044,"ս":1234,"arguably":15835,"83":6640,"modernization":20181,"amara":28599,"##ids":9821,"theodor":21448,"れ":1688,"disguise":14249,"tigers":7600,"coral":11034,"posterior":15219,"dar":18243,"barrister":19805,"mustard":23187,"##wei":19845,"violinist":16609,"musique":25784,"zulu":27359,"##ando":28574,"prohibits":25822,"loyola":21580,"formal":5337,"wellington":8409,"277":25578,"convert":10463,"##av":11431,"forgive":9641,"and":1998,"naturally":8100,"derivative":13819,"feelings":5346,"witches":12566,"##oat":16503,"oskar":28626,"lasts":16180,"##kind":18824,"norwich":12634,"colton":21000,"prosperity":14165,"temple":3379,"slopes":10314,"rations":29559,"lcd":27662,"benches":19571,"##mounted":27632,"[unused24]":25,"[unused561]":566,"gamble":18503,"[unused287]":292,"##etz":26327,"justices":19867,"2009":2268,"producers":6443,"kannada":13873,"kobe":24113,"decline":6689,"hp":6522,"comforting":16334,"##ছ":29893,"crete":19111,"clearly":4415,"phosphate":17344,"detachment":11009,"paws":24392,"flickered":15999,"hanover":14393,"##31":21486,"moans":24675,"ᵉ":1499,"##yr":12541,"covenant":16077,"topological":24309,"aux":19554,"##tive":6024,"baseman":18038,"butte":25024,"snoop":29044,"##isation":6648,"bernstein":18862,"fierce":9205,"spreads":20861,"possession":6664,"efficiently":18228,"ר":1265,"shelley":15828,"essays":8927,"monarchs":19799,"posting":14739,"ireland":3163,"ballads":18456,"sho":26822,"calming":23674,"province":2874,"rob":6487,"##sport":20205,"##宮":30350,"phones":11640,"##57":28311,"284":26871,"##woman":10169,"##fur":27942,"800":5385,"employs":13495,"walkover":17495,"##saka":29289,"subordinate":15144,"hewitt":19482,"##bial":21102,"tumbled":18303,"characterized":7356,"##oga":18170,"mandolin":17687,"tons":6197,"attested":18470,"nose":4451,"presumed":14609,"conventions":12472,"failed":3478,"eventual":9523,"isolation":12477,"vessels":6470,"infantry":3939,"program":2565,"##rill":24714,"##kura":28260,"till":6229,"salford":23001,"chet":25157,"kept":2921,"monument":6104,"communicating":20888,"2nd":3416,"johor":25268,"lama":18832,"##mani":20799,"exited":15284,"##tree":13334,"夏":1808,"tunisian":22946,"respectful":26438,"all":2035,"proportions":19173,"##nea":22084,"billy":5006,"incline":27461,"bio":16012,"##lo":4135,"swindon":22350,"burlington":15552,"draper":23641,"clements":28572,"aberdeen":12080,"[unused324]":329,"##nese":14183,"textbook":16432,"##nable":22966,"љ":1215,"trophies":22236,"nazi":6394,"newark":12948,"partial":7704,"describe":6235,"diet":8738,"generators":16937,"1974":3326,"##igate":28731,"champaign":28843,"column":5930,"hungry":7501,"less":2625,"amnesty":16154,"invented":8826,"tourist":7538,"pitch":6510,"goldsmith":22389,"proponent":22488,"worn":6247,"##ₛ":30098,"##world":11108,"freedom":4071,"bottom":3953,"##pper":18620,"te":8915,"rolf":23381,"##bala":25060,"##oides":25064,"##bari":25990,"lurched":21977,"##城":30330,"coco":25033,"stormy":24166,"##¾":29665,"vocal":5554,"satisfied":8510,"crashed":8007,"adjust":14171,"vertigo":28246,"##น":29949,"gilmore":22999,"##reen":28029,"kerman":24500,"aqueduct":24016,"non":2512,"tanya":19956,"cuisine":12846,"haifa":21303,"##ble":3468,"##)":29620,"1870s":14896,"1947":4006,"wonders":16278,"##之":30275,"##pot":11008,"moran":17866,"1642":24061,"##rdy":17460,"owe":12533,"snake":7488,"civilizations":24784,"##inating":19185,"mayoral":23578,"##ures":14900,"functionality":15380,"gonna":6069,"wouldn":2876,"ahmed":10208,"leith":29011,"fundamental":8050,"##ucible":21104,"##imeters":28136,"attack":2886,"supporters":6793,"##uc":14194,"departing":15971,"situ":26179,"cambodian":24417,"comrades":19033,"nik":23205,"exciting":10990,"ornamental":18200,"submarines":12622,"residential":5647,"[unused40]":41,"experimenting":23781,"pedal":15749,"[unused220]":225,"climbing":8218,"unpleasant":16010,"sap":20066,"cnn":13229,"below":2917,"markings":13967,"patterned":25336,"key":3145,"lim":18525,"evolved":7964,"schwartz":16756,"cooperation":6792,"sylvie":26009,"##erving":25164,"awesome":12476,"identity":4767,"春":1867,"##zed":5422,"##rite":17625,"peking":27057,"reaches":6561,"producing":5155,"健":1768,"281":22955,"raw":6315,"corporal":14265,"##oo":9541,"concurrent":16483,"clarified":20485,"converse":23705,"##vation":21596,"phelps":20475,"##南":30311,"conclude":16519,"silk":6953,"##logy":6483,"rower":21984,"##roids":29514,"space":2686,"##tered":14050,"nylon":27201,"ukraine":5924,"framed":10366,"pontiac":24538,"alteration":26014,"##sed":6924,"ひ":1673,"##ada":8447,"[unused722]":727,"nope":16780,"wrote":2626,"trick":7577,"academic":3834,"こ":1655,"popularity":6217,"mondays":28401,"isn":3475,"backgrounds":15406,"##さ":30182,"##lastic":28723,"tom":3419,"anna":4698,"oslo":9977,"anthropologist":21571,"hangar":18284,"standards":4781,"ヒ":1719,"282":26267,"best":2190,"northwards":27592,"##economic":23035,"angular":16108,"##stein":8602,"erskine":27139,"ambassadors":20986,"##־":29787,"##bbly":24200,"catherine":6615,"option":5724,"##tzer":29546,"##ssel":21218,"manuscripts":10485,"chocolate":7967,"strip":6167,"indexed":25331,"bun":21122,"ultrasound":27312,"##elial":24587,"corpse":11547,"ferguson":11262,"zoo":9201,"##vial":18660,"innovation":8144,"tuning":17372,"##ʎ":29701,"investors":9387,"jo":8183,"principal":4054,"kawasaki":27324,"⁷":1541,"auto":8285,"##ods":20620,"##eal":15879,"proved":4928,"##bus":8286,"battles":7465,"florian":29517,"zachary":19474,"##№":30106,"##uber":21436,"##vati":20203,"peabody":20004,"paterson":19162,"bonnet":24367,"advance":5083,"turret":14493,"##в":25529,"dissipated":22572,"grill":18651,"oblivion":24034,"parishes":11600,"taiwanese":16539,"chevy":29009,"shareholder":18668,"##₎":30088,"tablets":17596,"shouldered":29383,"wrestled":20615,"egyptian":6811,"prc":26141,"elbows":13690,"accession":16993,"litres":25783,"mri":27011,"##≈":30133,"##geny":17487,"reciprocal":28309,"##gan":5289,"ventilation":19536,"##otide":26601,"stan":9761,"##я":17432,"[unused226]":231,"##borg":11755,"crested":25413,"##ntino":25318,"disabled":9776,"##ب":29816,"buckled":26368,"[unused503]":508,"genes":9165,"recreated":29414,"alongside":4077,"visible":5710,"pamphlet":19899,"earnest":17300,"pad":11687,"wiltshire":17045,"hierarchy":12571,"xii":14371,"louie":17438,"detention":12345,"inmates":13187,"princess":4615,"wounding":27285,"##mite":23419,"1b":26314,"amendments":16051,"runes":29161,"##rma":17830,"cyclists":21912,"##elin":18809,"motorsports":20711,"##aldo":27318,"fis":27424,"connolly":21018,"fragment":15778,"fu":11865,"governing":8677,"##clave":23650,"caliber":15977,"discovery":5456,"■":1617,"210":12875,"##uance":26620,"tackled":26176,"modeled":14440,"mcdowell":25005,"##pm":9737,"communists":13009,"##bled":23242,"##imated":20592,"##თ":29980,"soda":14904,"1863":6899,"monde":23117,"orton":25161,"##eta":12928,"muttering":22581,"@":1030,"karl":6382,"discussed":6936,"##inal":13290,"空":1930,"agitation":22356,"musical":3315,"bronze":4421,"viaduct":20596,"related":3141,"勝":1780,"neither":4445,"##udy":20217,"1792":13414,"broke":3631,"ko":12849,"智":1869,"##vana":27313,"simmons":13672,"await":26751,"##т":22919,"##や":30208,"##wig":16279,"semester":13609,"##？":30520,"angelo":12262,"batted":12822,"253":23254,"##hunter":25629,"burn":6402,"[unused0]":1,"[unused737]":742,"honourable":17164,"wainwright":25305,"tis":22320,"christie":13144,"##ʲ":29707,"coincidence":16507,"wadi":28380,"musica":21137,"##ρ":29732,"##ples":21112,"guides":12468,"##beau":26401,"qualification":8263,"##nty":29405,"celaena":29252,"vimes":28482,"narrowing":21978,"patty":17798,"winnie":27125,"reverted":16407,"sets":4520,"ordinance":16692,"publishing":4640,"hear":2963,"##helm":24546,"independent":2981,"bush":5747,"ruined":9868,"abandoning":19816,"repealed":21492,"atp":12649,"brewery":12161,"financially":13732,"reacher":22970,"quiz":19461,"surplus":15726,"uniformly":27423,"panorama":23652,"collapse":7859,"purge":24694,"recycling":17874,"paranormal":20725,"del":3972,"unsigned":27121,"thessaloniki":23162,"orchestral":13533,"poultry":22468,"sectors":11105,"mcgee":22034,"##aging":16594,"stainless":18676,"bullying":18917,"subconscious":27952,"cuckoo":29010,"briefing":27918,"newmarket":22489,"##rook":25399,"wind":3612,"##boat":11975,"1818":12094,"seem":4025,"earthly":29520,"automobiles":19207,"acute":11325,"##ə":29681,"seahawks":21390,"indeed":5262,"computational":15078,"[unused767]":772,"neighbourhoods":27535,"desmond":16192,"kang":16073,"deluxe":15203,"cambrian":29228,"legend":5722,"luftwaffe":17740,"societe":18341,"enthusiastic":14727,"narrower":22546,"sara":7354,"frankie":12784,"dee":9266,"##vies":25929,"##smith":21405,"gavin":9448,"wipe":13387,"##オ":30225,"[unused571]":576,"##ion":3258,"[unused702]":707,"friendly":5379,"defeating":6324,"##dek":24463,"##hini":20535,"conform":23758,"transports":19003,"##lbert":23373,"##dding":27027,"merchant":6432,"pasadena":18880,"[unused631]":636,"##ups":22264,"wreckage":21056,"threatening":8701,"trolley":20820,"##§":29650,"##星":30392,"loses":12386,"restrictive":25986,"ashore":16145,"enthusiasm":12024,"forth":5743,"##kia":21128,"[unused398]":403,"##hers":22328,"transcript":24051,"extended":3668,"fusion":10077,"waterloo":13784,"turbulent":22609,"weiss":17889,"stud":16054,"chairperson":19072,"metre":7924,"##‰":30065,"auf":21200,"lists":7201,"amplifiers":28633,"kent":5982,"##berman":23991,"caucasian":23368,"portugal":5978,"##cured":19405,"protocols":16744,"##usia":24118,"##oshi":24303,"strongly":6118,"chronicles":11906,"genera":11416,"skate":17260,"simone":14072,"alleviate":24251,"22nd":13816,"bedford":12003,"nowadays":13367,"nellie":25365,"potsdam":26554,"fee":7408,"luke":5355,"lisbon":11929,"ས":1436,"monster":6071,"lawyers":9559,"camouflage":21356,"decent":11519,"junior":3502,"271":25103,"pumping":14107,"[unused17]":18,"certified":7378,"keep":2562,"receives":8267,"##atter":20097,"##jima":19417,"trevor":8672,"sacramento":11932,"[unused823]":828,"ultimately":4821,"→":1585,"##um":2819,"##worth":5172,"[unused128]":133,"##¬":29655,"comprising":9605,"yugoslavia":8936,"confederacy":18179,"baron":5797,"1644":23477,"##hak":20459,"dead":2757,"1675":27194,"creditors":23112,"dante":9649,"bitch":7743,"[unused864]":869,"lining":14834,"melvin":20993,"colombian":13598,"roma":12836,"##lates":26786,"##holding":23410,"queen":3035,"##hy":10536,"artillery":4893,"wendell":24526,"##শ":29910,"1618":29029,"such":2107,"merchants":10310,"specialty":12233,"clothes":4253,"1981":3261,"##oulos":28262,"networking":14048,"##do":3527,"unanimous":13604,"dunbar":23034,"ر":1280,"##iest":10458,"[unused522]":527,"int":20014,"healed":15027,"glow":8652,"##ph":8458,"eased":10987,"chuckled":10252,"champagne":12327,"##rou":22494,"##cut":12690,"syndication":26973,"quarry":12907,"##ische":13719,"/":1013,"lgbt":12010,"##±":29657,"##ek":5937,"##ab":7875,"wetland":22217,"martin":3235,"##ヒ":30245,"##rle":20927,"tipperary":17333,"vanity":18736,"[unused408]":413,"couldn":2481,"##liga":14715,"cushions":27205,"##oku":21940,"supervising":21238,"subdivisions":22095,"[unused397]":402,"please":3531,"bis":20377,"##－":30516,"greenish":23753,"whitaker":27049,"[unused205]":210,"braced":15515,"began":2211,"picture":3861,"hypothetical":25613,"##lidae":21595,"candles":14006,"##tya":21426,"##│":30143,"tremor":27734,"earrings":27212,"worms":16253,"[unused394]":399,"roadside":25131,"lisa":7059,"calvert":24800,"finger":4344,"##500":29345,"blanket":8768,"##ury":13098,"memorial":3986,"rudder":24049,"tweed":26922,"[unused442]":447,"pa":6643,"##dale":5634,"ferries":20157,"fein":27132,"deception":17575,"peered":10757,"prowess":26120,"geological":9843,"mps":12616,"geoff":14915,"##sko":21590,"dmitry":22141,"occult":27906,"highly":3811,"shay":18789,"jill":10454,"rapid":5915,"wanted":2359,"##cend":23865,"mayors":21941,"bellamy":25544,"[unused116]":121,"champs":29008,"friendships":28956,"predators":12630,"lambert":12838,"bassett":28303,"kari":27356,"##fc":11329,"tore":9538,"ར":1434,"[unused184]":189,"fingernails":21243,"maximus":21692,"uphold":27329,"experiments":7885,"##olo":12898,"356":27509,"studio":2996,"protective":9474,"precinct":18761,"rocked":14215,"napoli":29485,"balcony":11673,"guilty":5905,"widespread":6923,"[unused461]":466,"jacksonville":13057,"losers":23160,"[unused237]":242,"leon":6506,"dealer":11033,"1904":5692,"trailing":12542,"cn":27166,"athletics":6482,"##ction":7542,"foley":17106,"rehabilitation":11252,"rainer":28035,"[unused628]":633,"ion":10163,"imperial":4461,"collect":8145,"##dust":24220,"##44":22932,"dial":13764,"sundays":14803,"nostalgia":26968,"templar":27850,"crossing":5153,"compete":5566,"##gent":11461,"calves":28023,"##utter":26878,"coated":15026,"animated":6579,"reformation":13708,"peterson":12001,"philanthropy":29291,"storytelling":20957,"vibrating":24987,"##rations":28893,"309":25048,"keel":19602,"##gical":26715,"puget":27879,"likely":3497,"##ports":25378,"jing":21536,"polling":17888,"##₈":30084,"##enburg":12059,"[unused61]":62,"##：":30519,"rooney":24246,"malls":25943,"dodge":11898,"##nda":8943,"assimilation":27574,"madman":28441,"lafayette":14425,"nightclub":15479,"englishman":25244,":":1024,"withdraw":10632,"divide":11443,"[unused213]":218,"inhabited":9613,"mag":23848,"mort":22294,"mango":24792,"scott":3660,"pr":10975,"differentiate":21032,"backup":10200,"translucent":22897,"reasonably":16286,"allies":6956,"doorway":7086,"道":1957,"clench":26753,"factor":5387,"uncanny":28953,"african":3060,"whom":3183,"note":3602,"irresistible":27149,"tissue":8153,"a":1037,"hermit":24308,"intercepted":16618,"receptionist":23775,"lived":2973,"robe":11111,"court":2457,"akira":21616,"america":2637,"lowe":14086,"refurbishment":24478,"calm":5475,"##sling":28886,"[unused157]":162,"routine":9410,"complementary":21053,"quartz":20971,"icao":18055,"208":18512,"[unused714]":719,"##公":30298,"[unused239]":244,"nationally":9582,"serge":21747,"especially":2926,"rothschild":19712,"##lish":13602,"hana":26048,"synonym":10675,"hawk":9881,"[unused757]":762,"exploit":18077,"throne":6106,"implementing":14972,"kenton":25446,"challenger":12932,"henson":27227,"sven":21313,"pupils":7391,"chased":13303,"##ments":8163,"bedrooms":18390,"pulp":16016,"profits":11372,"plump":26731,"language":2653,"extinguished":27705,"boston":3731,"roam":25728,"##orth":28610,"symptoms":8030,"spinning":9419,"##var":10755,"ellis":8547,"chilling":27017,"serves":4240,"[unused853]":858,"##bin":8428,"taboo":27505,"websites":11744,"iconic":14430,"galicia":19017,"[unused888]":893,"wink":16837,"gel":21500,"internal":4722,"omitted":16647,"nitrate":29607,"reagan":11531,"patrice":29527,"cyprus":9719,"##sun":19729,"penang":21812,"charm":11084,"technically":10892,"railing":15747,"battery":6046,"ming":11861,"[unused221]":226,"orchid":15573,"##健":30294,"flexible":12379,"##els":9050,"stay":2994,"populace":22508,"##fulness":20938,"intimidating":24439,"motorized":26172,"##elli":13348,"enters":8039,"##z":2480,"lifeless":22185,"[unused417]":422,"##romatic":23645,"cold":3147,"##cycle":23490,"guitar":2858,"rachel":5586,"safe":3647,"##el":2884,"commented":7034,"boogie":21495,"salesman":18968,"graphic":8425,"chopper":28057,"mutter":23457,"cute":10140,"pike":12694,"##hood":9021,"1783":15331,"ix":11814,"noise":5005,"examinations":14912,"minnesota":5135,"exposing":14944,"##izations":22318,"destiny":10461,"quarterly":12174,"sm":15488,"立":1931,"child":2775,"nirvana":26530,"ruiz":18773,"2017":2418,"phrase":7655,"buffalo":6901,"paid":3825,"glad":5580,"1672":27253,"##idon":28201,"joey":9558,"mayfield":27224,"##itha":26054,"trademark":11749,"inequality":16440,"ш":1203,"1784":16496,"mimic":23150,"usd":13751,"judges":6794,"##grass":19673,"་":1424,"ideas":4784,"outlets":11730,"partners":5826,"evolve":19852,"intimate":10305,"##ience":13684,"cringed":23952,"prisoner":7267,"railroads":16197,"splits":19584,"##。":30162,"hospitalized":24735,"フ":1720,"÷":1099,"tolerate":19242,"##uth":14317,"##chenko":25872,"cleveland":6044,"distributing":20083,"##oked":23461,"##sai":15816,"frightened":10363,"##llon":22179,"assassination":10102,"jerome":11120,"insider":25297,"yarmouth":28792,"##ina":3981,"protected":5123,"##⽥":30160,"ₗ":1566,"hitter":18694,"##leen":24129,"macau":16878,"mar":9388,"derry":17455,"mickey":11021,"gurney":25061,"rubin":20524,"pairing":22778,"bismarck":22029,"impossible":5263,"##ador":26467,"ik":20912,"##cca":16665,"nah":20976,"streams":9199,"staging":15308,"threat":5081,"intersects":17349,"eyeing":19285,"club":2252,"curran":19649,"##inda":23938,"##itte":27100,"take":2202,"mmm":25391,"breathless":16701,"lame":20342,"george":2577,"detonated":28110,"##nished":28357,"ᴰ":1492,"aquino":24183,"##vier":14356,"sound":2614,"darcy":17685,"kin":12631,"closure":8503,"wickets":10370,"merge":13590,"1733":27230,"hardcore":13076,"tucker":9802,"hardcover":20990,"##nsk":25564,"gross":7977,"barrage":19359,"concacaf":22169,"##ो":29879,"parent":6687,"towel":10257,"fused":19660,"accomplishment":24718,"[unused673]":678,"equation":8522,"who":2040,"inline":23881,"storms":12642,"247":23380,"[unused217]":222,"wee":16776,"bust":13950,"luton":17807,"swans":26699,"cheered":25471,"wendy":12815,"oceanic":18955,"##ler":3917,"##ت":29817,"berger":16758,"##zquez":22938,"machinery":10394,"olaf":20514,"injured":5229,"fixtures":17407,"retained":6025,"##ver":6299,"##alis":13911,"ease":7496,"mansions":26842,"##aint":22325,"ja":14855,"scared":6015,"##isha":24032,"rowing":12037,"harmonic":19452,"##ocation":23909,"##cd":19797,"consumer":7325,"sophomore":13758,"chicago":3190,"1970s":3955,"voice":2376,"dioceses":26586,"humorous":14742,"ponds":16879,"takahashi":25585,"sells":15187,"offenses":25173,"patted":11930,"##tting":13027,"overshadowed":28604,"##shan":9688,"anal":20302,"##dden":17101,"pockets":10306,"illustrates":24899,"mir":14719,"guiana":23568,"##lab":20470,"sabine":18578,"vr":27830,"invoked":24959,"turner":6769,"grow":4982,"alabama":6041,"restraint":19355,"millennium":10144,"##lace":19217,"303":19988,"lesser":8276,"therefore":3568,"seymour":13254,"methodology":16134,"rhetoric":17871,"ظ":1287,"bloom":13426,"scooted":24289,"##zaki":18637,"##²":10701,"##rsa":22381,"carolyn":15611,"##writer":15994,"savannah":10891,"bayern":21350,"##onia":12488,"emory":25853,"motorsport":21044,"英":1941,"##lein":19856,"vidal":29259,"gaze":3657,"loire":20399,"adi":27133,"##gm":21693,"##‐":30048,"chromosomes":26874,"coupe":15130,"ro":20996,"macarthur":17719,"dismissing":28913,"glacial":17381,"choked":12444,"italia":13052,"colony":5701,"tunisia":13437,"##mbling":29256,"compact":9233,"##toy":29578,"formation":4195,"troubled":11587,"##ros":7352,"chihuahua":28480,"geographically":20969,"mcpherson":24332,"##lord":19980,"antony":16262,"lana":16554,"posthumous":19086,"transmission":6726,"afl":10028,"##hesive":21579,"silly":10021,"ancestral":14947,"##erman":18689,"flinched":19201,"dirt":6900,"wrinkled":15968,"groaning":24781,"fixture":15083,"tanaka":21829,"guessed":11445,"ceremonial":12961,"grounds":5286,"character":2839,"pau":29025,"stabbing":21690,"porsche":16099,"seventeenth":15425,"andrew":4080,"cy":22330,"##久":30274,"##nesian":20281,"burning":5255,"convinced":6427,"supplies":6067,"same":2168,"[unused347]":352,"announced":2623,"experience":3325,"portray":17279,"brisk":28022,"riley":7546,"game":2208,"##iting":15402,"charging":13003,"leroy":19103,"##chule":20269,"murray":6264,"applied":4162,"sonar":24609,"publicized":24928,"relax":9483,"fake":8275,"trumpets":26506,"projects":3934,"[unused873]":878,"curiously":16484,"##masters":27751,"##ua":6692,"admitted":4914,"sandstone":11694,"witnessed":9741,"yamamoto":28318,"slovakia":10991,"andrey":29219,"submit":12040,"bassist":9858,"737":22061,"##xi":9048,"##sters":15608,"jun":12022,"##ders":13375,"##plicity":27293,"consideration":9584,"substantive":27737,"1927":4764,"sci":16596,"fastened":24009,"implying":20242,"booker":16674,"pinning":22866,"affirmative":27352,"pillow":10005,"filled":3561,"hezbollah":25713,"persia":16667,"inscription":9315,"winchester":12841,"richmond":6713,"1972":3285,"##not":17048,"##erate":22139,"evidently":15329,"forthcoming":16875,"pont":21179,"##llis":21711,"##cript":23235,"##ghan":22218,"impression":8605,"nepal":8222,"##bula":28507,"##alle":24164,"downhill":19448,"gazette":11391,"interfaces":19706,"tame":24763,"##ganj":22738,"dressed":5102,"gladly":24986,"м":1191,"sculptors":28417,"pleasantly":27726,"mobilized":27526,"[unused751]":756,"enabling":12067,"##lag":17802,"minister":2704,"shivers":28464,"woven":17374,"incoming":14932,"exceptions":11790,"hiv":9820,"victim":6778,"garnered":13056,"transatlantic":26617,"##enas":26474,"tree":3392,"quay":21048,"shang":29382,"##տ":29783,"collaboration":5792,"asset":11412,"scientists":6529,"elegant":11552,"fraud":9861,"basement":8102,"##gawa":21188,"ff":21461,"##horse":23024,"debating":20767,"##zko":29002,"murdering":21054,"filing":15242,"willed":22705,"##lick":25230,"polynomial":17505,"crow":11465,"succession":8338,"lds":17627,"##₂":8229,"##ingdon":29138,"translated":5421,"elevators":19406,"collection":3074,"worm":15485,"jae":22770,"shapiro":24630,"slacks":27786,"dozens":9877,"1963":3699,"turbulence":29083,"##ᄃ":29993,"goldman":17765,"##hane":28006,"##phones":19093,"850":15678,"##ele":12260,"vip":21722,"andersen":18308,"ached":15043,"ি":1379,"ukrainian":5969,"scanned":11728,"acclaim":10761,"yates":20356,"##hman":13890,"disclose":26056,"played":2209,"milos":26038,"faulty":28927,"youtube":7858,"ky":18712,"role":2535,"heavens":17223,"organization":3029,"##yst":27268,"endangered":10193,"##moral":22049,"[unused886]":891,"##л":29436,"##夫":30339,"dorchester":27252,"freighter":27945,"##ayton":29319,"[unused303]":308,"##bane":27543,"doll":10658,"reviews":4391,"##dhar":25632,"honorary":5756,"256":17273,"louise":8227,"cramer":29433,"gypsy":16006,"inactive":16389,"hind":17666,"urgently":25478,"##ivism":22486,"##ger":4590,"310":17196,"[unused432]":437,"guerrilla":15722,"স":1376,"[unused457]":462,"congressman":12295,"kapoor":17129,"procession":14385,"honesty":16718,"months":2706,"baptism":18336,"disrupt":23217,"cody":13326,"##force":14821,"therapist":19294,"boundary":6192,"1648":22533,"nrhp":22424,"czechoslovakia":12833,"wheeling":29142,"successors":18530,"kidd":25358,"##ly":2135,"##lizer":28863,"paused":5864,"neon":16231,"exempt":11819,"import":12324,"temporarily":8184,"##த":29921,"aerodynamic":28033,"exceptionally":17077,"##村":30404,"tenure":7470,"balkans":19733,"infants":16725,"colored":6910,"avila":29079,"##wyn":11761,"##hetic":20086,"##ظ":29829,"speaks":8847,"cordoba":17986,"[unused608]":613,"montane":21704,"pressured":25227,"vaudeville":19698,"gunner":14850,"rapidly":5901,"induction":15946,"[unused127]":132,"des":4078,"army":2390,"##pton":15857,"##oso":19137,"festivals":7519,"phase":4403,"##aith":22465,"ether":28855,"ᵍ":1500,"##nology":21020,"entirely":4498,"helsinki":12331,"swamps":22722,"feud":13552,"confrontation":13111,"gazes":23514,"ode":24040,"₄":1551,"threaded":26583,"carriages":17744,"##oid":9314,"##ane":7231,"assurance":16375,"ク":1702,"port":3417,"predecessors":16372,"stir":16130,"katherine":9477,"dawn":6440,"storm":4040,"conditional":18462,"##feit":21156,"coping":27520,"upscale":28276,"elton":19127,"larvae":9673,"ear":4540,"regulated":12222,"distinguish":10782,"folded":6999,"disguised":17330,"podcast":16110,"fragments":10341,"hop":6154,"arctic":10162,"intently":16170,"powerful":3928,"tugs":29306,"portraying":17274,"##tlement":24007,"sentinel":16074,"cheney":23745,"[unused420]":425,"craving":26369,"maintains":9319,"disbelief":12537,"##notes":20564,"manners":14632,"##gpur":25758,"##lma":19145,"##piration":16781,"fjord":26158,"rocking":14934,"##par":19362,"willy":16172,"tingling":23690,"oracle":14721,"humid":14178,"forster":21316,"rumours":19200,"ec":14925,"eminent":14953,"dresser":16641,"attacker":17346,"##uve":22909,"stephenson":19789,"oaks":13396,"##brand":23544,"bloody":6703,"donation":13445,"wakes":17507,"surrey":9948,"banking":8169,"00pm":27995,"accordingly":11914,"italiana":28059,"jackets":17764,"fly":4875,"slots":19832,"jobs":5841,"gdansk":21942,"sorted":19616,"poking":21603,"musa":23154,"checked":7039,"evolving":20607,"greet":17021,"mayfair":28387,"redding":26687,"##rew":15603,"##kas":13716,"[unused734]":739,"##pen":11837,"##tain":18249,"tiger":6816,"gujarati":26428,"550":13274,"avenge":24896,"contempt":17152,"privatization":23966,"interceptions":18387,"titular":12960,"##zow":22670,"quentin":15969,"navarre":21260,"denis":11064,"composing":16572,"##gle":9354,"vibrant":17026,"hull":6738,"outcome":9560,"combination":5257,"sky":3712,"1702":26776,"relic":24933,"patriots":11579,"refuses":10220,"poke":26202,"auditions":21732,"badminton":14618,"closet":9346,"retrieve":12850,"decca":21079,"unconventional":23693,"c":1039,"##y":2100,"##cl":20464,"app":10439,"celine":24550,"equipped":6055,"lesley":23920,"##yar":13380,"brief":4766,"mala":28935,"entries":10445,"rashid":22080,"humiliating":28284,"1727":25350,"greenhouse":16635,"अ":1311,"clinton":7207,"bench":6847,"unearthed":27422,"sears":18493,"supervisory":26653,"nord":13926,"spent":2985,"ithaca":27939,"amiga":24126,"bulge":23708,"₤":1572,"##ccus":27631,"bulls":12065,"talents":11725,"1980s":3865,"##cht":10143,"maynard":22130,"felicia":27579,"started":2318,"##bu":8569,"coyotes":26880,"sprang":15627,"billionaire":22301,"##section":29015,"##hand":11774,"lay":3913,"grades":7022,"vocalist":8032,"alec":9752,"cheshire":13789,"interviews":7636,"steamer":18027,"paddington":26318,"ambiguity":27637,"finalist":9914,"##rift":16338,"##raction":25533,"##ticus":29587,"caress":21753,"averages":20185,"王":1909,"fiance":19154,"choices":9804,"marley":20326,"besides":4661,"38":4229,"assaulted":17536,"configurations":22354,"←":1583,"yd":21076,"dialogue":7982,"##dot":27364,"##ili":18622,"door":2341,"aunt":5916,"##δ":29722,"reunite":25372,"rented":12524,"stein":14233,"##rner":18703,"##dick":24066,"commenced":8420,"##ˈ":29715,"archery":21383,"processors":18017,"mundane":24684,"fan":5470,"striking":8478,"effectively":6464,"##kling":20260,"outlawed":29131,"fuel":4762,"##ified":7810,"censorship":15657,"imprisoned":8580,"rhythm":6348,"deals":9144,"weakness":11251,"##17":16576,"##ount":21723,"##ren":7389,"navigator":20532,"atletico":16132,"##mon":8202,"psychiatrist":18146,"entertaining":14036,"declan":16494,"##igan":10762,"reporting":7316,"unauthorized":24641,"bitterness":22364,"christian":3017,"surface":3302,"maintained":5224,"taluk":23140,"sit":4133,"maid":10850,"##athic":20972,"[unused13]":14,"##raße":27807,"wheeled":17320,"hooper":23717,"cards":5329,"morphology":19476,"published":2405,"sigma":13201,"heresy":28354,"##dor":7983,"windshield":19521,"gamma":13091,"whereupon":26090,"essentially":7687,"wildcats":19495,"stripped":10040,"owes":24381,"##van":6212,"comfortably":18579,"λ":1165,"concessions":20638,"diplomatic":8041,"alien":7344,"gus":12670,"folklore":13104,"selfish":14337,"etienne":16821,"taluka":29512,"addresses":11596,"indefinitely":20733,"totally":6135,"fai":26208,"cleansing":26799,"facade":8508,"∅":1593,"##nall":22270,"##ame":14074,"##hner":28989,"x":1060,"[unused124]":129,"bounced":13605,"ipod":26322,"oak":6116,"worthy":11007,"##onus":24891,"johnston":10773,"##mins":21266,"relief":4335,"ashford":26545,"[unused730]":735,"labour":4428,"logic":7961,"widening":17973,"##rini":22612,"tragic":13800,"slung":20078,"##ppy":27659,"##nified":25201,"1734":27367,"pottery":11378,"##∆":30122,"motions":15323,"military":2510,"vincent":6320,"ss":7020,"##ᆯ":30022,"compound":7328,"1640":21533,"[unused288]":293,"swift":9170,"transported":9687,"suitcase":15940,"laid":4201,"##tine":10196,"blitz":22312,"whiskey":13803,"ち":1662,"tonga":20188,"ever":2412,"##nidae":29135,"humanity":8438,"notified":19488,"##ilis":24411,"£2":21853,"acacia":24766,"##ـ":29832,"flash":5956,"jonas":10680,"endless":10866,"[unused212]":217,"243":22884,"important":2590,"leans":12671,"submarine":6982,"winning":3045,"triple":6420,"marquez":27320,"anthologies":25675,"manufacturers":8712,
[...]
